{
  "version": "1.0",
  "truncation": null,
  "padding": null,
  "added_tokens": [
    {
      "id": 0,
      "content": "<pad>",
      "single_word": false,
      "lstrip": false,
      "rstrip": false,
      "normalized": false,
      "special": true
    },
    {
      "id": 1,
      "content": "<start>",
      "single_word": false,
      "lstrip": false,
      "rstrip": false,
      "normalized": false,
      "special": true
    },
    {
      "id": 2,
      "content": "<end>",
      "single_word": false,
      "lstrip": false,
      "rstrip": false,
      "normalized": false,
      "special": true
    }
  ],
  "normalizer": null,
  "pre_tokenizer": {
    "type": "ByteLevel",
    "add_prefix_space": true,
    "trim_offsets": true,
    "use_regex": true
  },
  "post_processor": {
    "type": "ByteLevel",
    "add_prefix_space": true,
    "trim_offsets": true,
    "use_regex": true
  },
  "decoder": {
    "type": "ByteLevel",
    "add_prefix_space": true,
    "trim_offsets": true,
    "use_regex": true
  },
  "model": {
    "type": "BPE",
    "dropout": null,
    "unk_token": null,
    "continuing_subword_prefix": null,
    "end_of_word_suffix": null,
    "fuse_unk": false,
    "byte_fallback": false,
    "ignore_merges": false,
    "vocab": {
      "<pad>": 0,
      "<start>": 1,
      "<end>": 2,
      "!": 3,
      "\"": 4,
      "#": 5,
      "$": 6,
      "%": 7,
      "&": 8,
      "'": 9,
      "(": 10,
      ")": 11,
      "*": 12,
      "+": 13,
      ",": 14,
      "-": 15,
      ".": 16,
      "/": 17,
      "0": 18,
      "1": 19,
      "2": 20,
      "3": 21,
      "4": 22,
      "5": 23,
      "6": 24,
      "7": 25,
      "8": 26,
      "9": 27,
      ":": 28,
      ";": 29,
      "<": 30,
      "=": 31,
      ">": 32,
      "?": 33,
      "@": 34,
      "A": 35,
      "B": 36,
      "C": 37,
      "D": 38,
      "E": 39,
      "F": 40,
      "G": 41,
      "H": 42,
      "I": 43,
      "J": 44,
      "K": 45,
      "L": 46,
      "M": 47,
      "N": 48,
      "O": 49,
      "P": 50,
      "Q": 51,
      "R": 52,
      "S": 53,
      "T": 54,
      "U": 55,
      "V": 56,
      "W": 57,
      "X": 58,
      "Y": 59,
      "Z": 60,
      "[": 61,
      "\\": 62,
      "]": 63,
      "^": 64,
      "_": 65,
      "`": 66,
      "a": 67,
      "b": 68,
      "c": 69,
      "d": 70,
      "e": 71,
      "f": 72,
      "g": 73,
      "h": 74,
      "i": 75,
      "j": 76,
      "k": 77,
      "l": 78,
      "m": 79,
      "n": 80,
      "o": 81,
      "p": 82,
      "q": 83,
      "r": 84,
      "s": 85,
      "t": 86,
      "u": 87,
      "v": 88,
      "w": 89,
      "x": 90,
      "y": 91,
      "z": 92,
      "{": 93,
      "|": 94,
      "}": 95,
      "~": 96,
      "¡": 97,
      "¢": 98,
      "£": 99,
      "¤": 100,
      "¥": 101,
      "¦": 102,
      "§": 103,
      "¨": 104,
      "©": 105,
      "ª": 106,
      "«": 107,
      "¬": 108,
      "®": 109,
      "¯": 110,
      "°": 111,
      "±": 112,
      "²": 113,
      "³": 114,
      "´": 115,
      "µ": 116,
      "¶": 117,
      "·": 118,
      "¸": 119,
      "¹": 120,
      "º": 121,
      "»": 122,
      "¼": 123,
      "½": 124,
      "¾": 125,
      "¿": 126,
      "À": 127,
      "Á": 128,
      "Â": 129,
      "Ã": 130,
      "Ä": 131,
      "Å": 132,
      "Æ": 133,
      "Ç": 134,
      "È": 135,
      "É": 136,
      "Ê": 137,
      "Ë": 138,
      "Ì": 139,
      "Í": 140,
      "Î": 141,
      "Ï": 142,
      "Ð": 143,
      "Ñ": 144,
      "Ò": 145,
      "Ó": 146,
      "Ô": 147,
      "Õ": 148,
      "Ö": 149,
      "×": 150,
      "Ø": 151,
      "Ù": 152,
      "Ú": 153,
      "Û": 154,
      "Ü": 155,
      "Ý": 156,
      "Þ": 157,
      "ß": 158,
      "à": 159,
      "á": 160,
      "â": 161,
      "ã": 162,
      "ä": 163,
      "å": 164,
      "æ": 165,
      "ç": 166,
      "è": 167,
      "é": 168,
      "ê": 169,
      "ë": 170,
      "ì": 171,
      "í": 172,
      "î": 173,
      "ï": 174,
      "ð": 175,
      "ñ": 176,
      "ò": 177,
      "ó": 178,
      "ô": 179,
      "õ": 180,
      "ö": 181,
      "÷": 182,
      "ø": 183,
      "ù": 184,
      "ú": 185,
      "û": 186,
      "ü": 187,
      "ý": 188,
      "þ": 189,
      "ÿ": 190,
      "Ā": 191,
      "ā": 192,
      "Ă": 193,
      "ă": 194,
      "Ą": 195,
      "ą": 196,
      "Ć": 197,
      "ć": 198,
      "Ĉ": 199,
      "ĉ": 200,
      "Ċ": 201,
      "ċ": 202,
      "Č": 203,
      "č": 204,
      "Ď": 205,
      "ď": 206,
      "Đ": 207,
      "đ": 208,
      "Ē": 209,
      "ē": 210,
      "Ĕ": 211,
      "ĕ": 212,
      "Ė": 213,
      "ė": 214,
      "Ę": 215,
      "ę": 216,
      "Ě": 217,
      "ě": 218,
      "Ĝ": 219,
      "ĝ": 220,
      "Ğ": 221,
      "ğ": 222,
      "Ġ": 223,
      "ġ": 224,
      "Ģ": 225,
      "ģ": 226,
      "Ĥ": 227,
      "ĥ": 228,
      "Ħ": 229,
      "ħ": 230,
      "Ĩ": 231,
      "ĩ": 232,
      "Ī": 233,
      "ī": 234,
      "Ĭ": 235,
      "ĭ": 236,
      "Į": 237,
      "į": 238,
      "İ": 239,
      "ı": 240,
      "Ĳ": 241,
      "ĳ": 242,
      "Ĵ": 243,
      "ĵ": 244,
      "Ķ": 245,
      "ķ": 246,
      "ĸ": 247,
      "Ĺ": 248,
      "ĺ": 249,
      "Ļ": 250,
      "ļ": 251,
      "Ľ": 252,
      "ľ": 253,
      "Ŀ": 254,
      "ŀ": 255,
      "Ł": 256,
      "ł": 257,
      "Ń": 258,
      "Ġd": 259,
      "Ġde": 260,
      "Ġe": 261,
      "Ġp": 262,
      "ra": 263,
      "čĊ": 264,
      "ta": 265,
      "re": 266,
      "Ġa": 267,
      "co": 268,
      "Ã§": 269,
      "Ã£": 270,
      "Ã£o": 271,
      "Ġn": 272,
      "Ġs": 273,
      "nt": 274,
      "os": 275,
      "ci": 276,
      "02": 277,
      "li": 278,
      "00": 279,
      "is": 280,
      "202": 281,
      "or": 282,
      "es": 283,
      "ro": 284,
      "2024": 285,
      "Ã§Ã£o": 286,
      "Ġco": 287,
      "er": 288,
      "Ġm": 289,
      "as": 290,
      "Ġo": 291,
      "ĠčĊ": 292,
      "ni": 293,
      "Ġ1": 294,
      "te": 295,
      "ca": 296,
      "in": 297,
      "ent": 298,
      "da": 299,
      "ri": 300,
      "et": 301,
      "Ġpre": 302,
      "al": 303,
      "Ġdo": 304,
      "Âº": 305,
      "ww": 306,
      "de": 307,
      "Ġre": 308,
      "di": 309,
      "Ġda": 310,
      "Ġ-": 311,
      "ĠnÂº": 312,
      "Ġno": 313,
      "do": 314,
      "Ġpa": 315,
      "ma": 316,
      "Ġ0": 317,
      "rÃ": 318,
      "mp": 319,
      "Ġc": 320,
      "Ġf": 321,
      "cita": 322,
      "qu": 323,
      "ei": 324,
      "ĠÃ": 325,
      "tal": 326,
      "to": 327,
      "Ġli": 328,
      "ti": 329,
      "en": 330,
      "tu": 331,
      "go": 332,
      "Ġ2": 333,
      "Ġse": 334,
      "Ġpro": 335,
      "br": 336,
      "ment": 337,
      "Ġlicita": 338,
      "ras": 339,
      "Ġl": 340,
      "ĠÃł": 341,
      "uni": 342,
      "Ã¡": 343,
      "ÃŃ": 344,
      "Ġh": 345,
      "Ġi": 346,
      "Ġcon": 347,
      "Ġpara": 348,
      "Ġel": 349,
      "Ġ(": 350,
      "ĠÃłs": 351,
      "Ġv": 352,
      "ess": 353,
      "res": 354,
      "´ni": 355,
      "el": 356,
      "Ġin": 357,
      "Ġelet": 358,
      "10": 359,
      "www": 360,
      "Ġb": 361,
      "Ãµ": 362,
      "Ãµes": 363,
      "rÃ´ni": 364,
      "gov": 365,
      "ĠeletrÃ´ni": 366,
      "Ġdas": 367,
      "cia": 368,
      "ia": 369,
      "Ġes": 370,
      "mento": 371,
      "Ã§Ãµes": 372,
      "Ġt": 373,
      "an": 374,
      "Ġob": 375,
      "ntra": 376,
      "Ġmuni": 377,
      "tura": 378,
      "Ġav": 379,
      "Ġcom": 380,
      "dital": 381,
      "il": 382,
      "Ã©": 383,
      "ĠlicitaÃ§Ã£o": 384,
      "gÃ£o": 385,
      "ĠeletrÃ´nico": 386,
      "Ġcontra": 387,
      "on": 388,
      "ĠpregÃ£o": 389,
      "Ãº": 390,
      "za": 391,
      "01": 392,
      "mpras": 393,
      "Ġ3": 394,
      "ist": 395,
      "for": 396,
      "Ġwww": 397,
      "Ġg": 398,
      "jet": 399,
      "Ġedital": 400,
      "Ġqu": 401,
      "Ġou": 402,
      "Ġavis": 403,
      "dos": 404,
      "cess": 405,
      "taÃ§Ã£o": 406,
      "ten": 407,
      "Ġ2024": 408,
      "bli": 409,
      "Ġaviso": 410,
      "rio": 411,
      "Ġsi": 412,
      "Ġma": 413,
      "pos": 414,
      "Ġser": 415,
      "ga": 416,
      "ul": 417,
      "ncia": 418,
      "Ġobjet": 419,
      "Ġna": 420,
      "nte": 421,
      "Ġr": 422,
      "bro": 423,
      "compras": 424,
      "Ã§o": 425,
      "na": 426,
      "cip": 427,
      "Ġj": 428,
      "tas": 429,
      "Ġem": 430,
      "Ġobjeto": 431,
      "ne": 432,
      "Ġen": 433,
      "vi": 434,
      "us": 435,
      "ria": 436,
      "Ġmunicip": 437,
      "Ġpropos": 438,
      "Ġas": 439,
      "io": 440,
      "Ġsite": 441,
      "pe": 442,
      "min": 443,
      "liza": 444,
      "lo": 445,
      "Ġca": 446,
      "Ġpor": 447,
      "Ġ9": 448,
      "va": 449,
      "Ġ08": 450,
      "ber": 451,
      "mo": 452,
      "Ġmunicipal": 453,
      "cesso": 454,
      "Ġpropostas": 455,
      "ªncia": 456,
      "si": 457,
      "tem": 458,
      "09": 459,
      "Ã§os": 460,
      "Ġrea": 461,
      "Ãºbli": 462,
      "ĠpÃºbli": 463,
      "Ġreg": 464,
      "dade": 465,
      "Ġprocesso": 466,
      "Ġ09": 467,
      "forma": 468,
      "pa": 469,
      "ĠcontrataÃ§Ã£o": 470,
      "Ġemp": 471,
      "la": 472,
      "cre": 473,
      "ente": 474,
      "vo": 475,
      "fei": 476,
      "Ġdis": 477,
      "tt": 478,
      "//": 479,
      "ce": 480,
      "ttp": 481,
      "Ã³": 482,
      "://": 483,
      "iÃ§Ã£o": 484,
      "Ġad": 485,
      "me": 486,
      "Ġex": 487,
      "sa": 488,
      "Ġaber": 489,
      "das": 490,
      "Ġdi": 491,
      "Ġhttp": 492,
      "Ġat": 493,
      "Ġempres": 494,
      "Ġsa": 495,
      "Ġdia": 496,
      "Ġque": 497,
      "Ġho": 498,
      "Ã¡rio": 499,
      "enta": 500,
      "Ġto": 501,
      "0001": 502,
      "30": 503,
      "fi": 504,
      "Ġdos": 505,
      "Ġinforma": 506,
      "Ġprefei": 507,
      "Ġu": 508,
      "Ġso": 509,
      "ha": 510,
      "Ġabertura": 511,
      "caÃ§Ã£o": 512,
      "quis": 513,
      "Ġval": 514,
      "cÃŃ": 515,
      "Ġempresa": 516,
      "Ġ4": 517,
      "Ġpel": 518,
      "ua": 519,
      "ran": 520,
      "Ġ10": 521,
      "Ġdes": 522,
      "Ġpar": 523,
      "Ġhttps": 524,
      "Ġ12": 525,
      "Ġ14": 526,
      "cu": 527,
      "Ġregist": 528,
      "Ġaquis": 529,
      "le": 530,
      "Ġservi": 531,
      "po": 532,
      "cÃŃp": 533,
      "se": 534,
      "dere": 535,
      "com": 536,
      "tubro": 537,
      "Ġendere": 538,
      "Ġsecre": 539,
      "Ġoutubro": 540,
      "ĠmunicÃŃp": 541,
      "un": 542,
      "Ġvalor": 543,
      "der": 544,
      "Ġmo": 545,
      "ĠmunicÃŃpio": 546,
      "Ġcons": 547,
      "ĠaquisiÃ§Ã£o": 548,
      "des": 549,
      "ĠinformaÃ§Ãµes": 550,
      "ĠendereÃ§o": 551,
      "Ġespe": 552,
      "cor": 553,
      "Ġdisp": 554,
      "Ġlo": 555,
      "bi": 556,
      "ral": 557,
      "asg": 558,
      "Ġsu": 559,
      "ar": 560,
      "ve": 561,
      "Ãªncia": 562,
      "Ġesta": 563,
      "Ġ17": 564,
      "eiro": 565,
      "net": 566,
      "tembro": 567,
      "Ġsetembro": 568,
      "001": 569,
      "Ġlei": 570,
      "np": 571,
      "ru": 572,
      "Ġregistro": 573,
      "Ġ5": 574,
      "npj": 575,
      "Ġparti": 576,
      "eira": 577,
      "Ġfor": 578,
      "Ġal": 579,
      "mentos": 580,
      "Ġins": 581,
      "Ġtotal": 582,
      "ter": 583,
      "Ġter": 584,
      "ĠpÃºblico": 585,
      "Ġ15": 586,
      "Ġcnpj": 587,
      "Ġaten": 588,
      "Ġlt": 589,
      "ba": 590,
      "cio": 591,
      "Ġltda": 592,
      "taria": 593,
      "000": 594,
      "Ġ6": 595,
      "Ġ7": 596,
      "rÃ¡": 597,
      "ina": 598,
      "ho": 599,
      "du": 600,
      "dades": 601,
      "13": 602,
      "Ġ13": 603,
      "Ġconfor": 604,
      "Ġpo": 605,
      "cial": 606,
      "Ġvi": 607,
      "Ġrealiza": 608,
      "cas": 609,
      "Ġinte": 610,
      "istra": 611,
      "Ġpartir": 612,
      ").": 613,
      "Ã©s": 614,
      "ministra": 615,
      "rav": 616,
      "Ġpelo": 617,
      "Ġadministra": 618,
      "lidade": 619,
      "Ġ8": 620,
      "ĠserviÃ§os": 621,
      "Ġtor": 622,
      "Ġpres": 623,
      "Ġprefeitura": 624,
      "Ġqua": 625,
      "Ġatrav": 626,
      "entos": 627,
      "Ġar": 628,
      "ĠpreÃ§os": 629,
      "Ġag": 630,
      "ĠatravÃ©s": 631,
      "Ġte": 632,
      "Ġtorna": 633,
      "Ġ11": 634,
      "Ġ16": 635,
      "Ġent": 636,
      "ubli": 637,
      "Ġconforme": 638,
      "tivo": 639,
      "Ġ25": 640,
      "orÃ¡rio": 641,
      "Ġmil": 642,
      "rÃªncia": 643,
      "no": 644,
      "ĠpreÃ§o": 645,
      "tens": 646,
      "Ġuni": 647,
      "cion": 648,
      "Ġge": 649,
      "Ġbras": 650,
      "licita": 651,
      "mail": 652,
      "Ãª": 653,
      "nex": 654,
      "Ġanex": 655,
      "dor": 656,
      "gu": 657,
      "pi": 658,
      "por": 659,
      "em": 660,
      "Ġsecretaria": 661,
      "lia": 662,
      "Ġci": 663,
      "Ġsess": 664,
      "),": 665,
      "Ġentre": 666,
      "Ġprego": 667,
      "Ġao": 668,
      "Ġitens": 669,
      "11": 670,
      "Ġdata": 671,
      "qui": 672,
      "tos": 673,
      "cimento": 674,
      "Ãºde": 675,
      "ĠsaÃºde": 676,
      "Ġcent": 677,
      "sÃ£o": 678,
      "so": 679,
      "Ġhoras": 680,
      "corrÃªncia": 681,
      "Ġinteres": 682,
      "Ġref": 683,
      "Ġnos": 684,
      "Ġreais": 685,
      "Ġper": 686,
      "Â°": 687,
      "ĠconcorrÃªncia": 688,
      "Ġ01": 689,
      "Ġ23": 690,
      "Ġmen": 691,
      "lizada": 692,
      "Ġor": 693,
      "Ġ02": 694,
      "tor": 695,
      "Ġcomp": 696,
      "Ġ24": 697,
      "Ġos": 698,
      "vel": 699,
      "Ġfe": 700,
      "Ġmater": 701,
      "mi": 702,
      "2023": 703,
      "Ġespecia": 704,
      "molo": 705,
      "Ġme": 706,
      "rei": 707,
      "ĠeletrÃ´nica": 708,
      "Ġuasg": 709,
      "man": 710,
      "15": 711,
      "Ġinteressa": 712,
      "Ġhomolo": 713,
      "Ġatender": 714,
      "tru": 715,
      "ĠpÃºblica": 716,
      "Ġpe": 717,
      "fica": 718,
      "tÃ³": 719,
      "ĠsessÃ£o": 720,
      "Ġne": 721,
      "Ġentrega": 722,
      "ros": 723,
      "Ġti": 724,
      "nto": 725,
      "mos": 726,
      "24": 727,
      "udi": 728,
      "vos": 729,
      "idades": 730,
      "Ġle": 731,
      "cos": 732,
      "Ġ30": 733,
      "ĠlicitaÃ§Ãµes": 734,
      "ver": 735,
      "Ġitem": 736,
      "Ġro": 737,
      "Ġanexos": 738,
      "Ġcontrata": 739,
      "gi": 740,
      "99": 741,
      "Ġsup": 742,
      "Ġba": 743,
      "Ġinteressados": 744,
      "Ġfede": 745,
      "Ġfa": 746,
      "Ġhomologa": 747,
      "Ã§a": 748,
      "Ġfun": 749,
      "mg": 750,
      "Ġ26": 751,
      "Ġsil": 752,
      "Ġcentro": 753,
      "ÃŃlia": 754,
      "gra": 755,
      "sp": 756,
      "cri": 757,
      "Ġpra": 758,
      "ntes": 759,
      "Ġtermo": 760,
      "Ġespecializada": 761,
      "Ġtipo": 762,
      "12": 763,
      "rais": 764,
      "Ġap": 765,
      "Ġforne": 766,
      "nc": 767,
      "Ġ27": 768,
      "Ġmenor": 769,
      "Ġfederal": 770,
      "Ġ18": 771,
      "tÃ³rio": 772,
      "Ġcontrato": 773,
      "rib": 774,
      "Ġ03": 775,
      "Ġloca": 776,
      "ando": 777,
      "vent": 778,
      "ĠbrasÃŃlia": 779,
      "Ġlicitados": 780,
      "Ġnecess": 781,
      "Ġmar": 782,
      "bal": 783,
      "Ġcar": 784,
      "ĠhorÃ¡rio": 785,
      "cao": 786,
      "Ġequi": 787,
      "133": 788,
      "Ġass": 789,
      "Ġseus": 790,
      "cul": 791,
      "59": 792,
      "Ġ04": 793,
      "Ġprefeito": 794,
      "Ġpubli": 795,
      "ui": 796,
      "Ġan": 797,
      "onÃŃ": 798,
      "ĠsÃ£o": 799,
      "edital": 800,
      "ecu": 801,
      "ĠdisponÃŃ": 802,
      "eri": 803,
      "Ġsilva": 804,
      "tra": 805,
      "Ġmoda": 806,
      "zo": 807,
      "Ġmodalidade": 808,
      "Ġportal": 809,
      "Ġrua": 810,
      "Ġexecu": 811,
      "Ãªn": 812,
      "Ġadj": 813,
      "centos": 814,
      "03": 815,
      "rs": 816,
      "Ġ.": 817,
      "issÃ£o": 818,
      "06": 819,
      "Ġgerais": 820,
      "Ġpoder": 821,
      "44": 822,
      "2021": 823,
      "Ġcu": 824,
      "cional": 825,
      "uta": 826,
      "raÃ§Ã£o": 827,
      "Ġ07": 828,
      "dente": 829,
      "Ġadministrativo": 830,
      "siasg": 831,
      "rans": 832,
      "aÃ§Ã£o": 833,
      "siasgnet": 834,
      "Ġagente": 835,
      "Ġadjudi": 836,
      "Ġcompras": 837,
      "ulta": 838,
      "Ġ00": 839,
      "org": 840,
      "ĠatÃ©": 841,
      "Ġpregoeiro": 842,
      "Ġfornecimento": 843,
      "66": 844,
      "Ġres": 845,
      "tÃ¡": 846,
      "dora": 847,
      "Ġman": 848,
      "one": 849,
      "ÃŃcio": 850,
      "Ġju": 851,
      "iste": 852,
      "tes": 853,
      "tro": 854,
      "dia": 855,
      "coes": 856,
      "men": 857,
      "iais": 858,
      "Ġfo": 859,
      "bel": 860,
      "Ġevent": 861,
      "Ġequipa": 862,
      "erÃªncia": 863,
      "Ġcondi": 864,
      "Ġ21": 865,
      "mas": 866,
      "31": 867,
      "Ġfi": 868,
      "Ġsob": 869,
      "ual": 870,
      "Ġedu": 871,
      "25": 872,
      "dica": 873,
      "26": 874,
      "Ġgo": 875,
      "rp": 876,
      "jo": 877,
      "08": 878,
      "he": 879,
      "mente": 880,
      "04": 881,
      "tÃ¡rio": 882,
      "Ġrece": 883,
      "veis": 884,
      "21": 885,
      "ĠcomissÃ£o": 886,
      "ĠhomologaÃ§Ã£o": 887,
      "ĠserÃ¡": 888,
      "Ġpela": 889,
      "Ġint": 890,
      "dimento": 891,
      "Ã¢": 892,
      "eio": 893,
      "mb": 894,
      "pes": 895,
      "Ġnecessidades": 896,
      "rios": 897,
      "00001": 898,
      "Ġmateriais": 899,
      "pital": 900,
      "cias": 901,
      "anta": 902,
      "Ġdisputa": 903,
      "tiva": 904,
      "Ġglo": 905,
      "Ġcomo": 906,
      "ĠprestaÃ§Ã£o": 907,
      "Ġla": 908,
      "Ġregi": 909,
      "Ġespeci": 910,
      "Ġart": 911,
      "istema": 912,
      "Ġglobal": 913,
      "menta": 914,
      "contra": 915,
      "05": 916,
      "ial": 917,
      "Ġvis": 918,
      "ĠeducaÃ§Ã£o": 919,
      "Ġ900": 920,
      "ntos": 921,
      "Ġsegu": 922,
      "ĠcondiÃ§Ãµes": 923,
      "Ġhos": 924,
      "ĠreferÃªncia": 925,
      "Ġfu": 926,
      "ĠinÃŃcio": 927,
      "Ġespecifica": 928,
      "cl": 929,
      "Ġcenta": 930,
      "Ġmeio": 931,
      "ĠexecuÃ§Ã£o": 932,
      "Ġalte": 933,
      "Ġcentavos": 934,
      "Ġtele": 935,
      "Ġprazo": 936,
      "ig": 937,
      "Ġdispos": 938,
      "Ġequipamentos": 939,
      "ĠdisponÃŃvel": 940,
      "Ġestado": 941,
      "ze": 942,
      "Ġrecebi": 943,
      "Ġcre": 944,
      "Ġ\"": 945,
      "portal": 946,
      "Ġcomuni": 947,
      "Ġ19": 948,
      "Ġce": 949,
      "Ġeventual": 950,
      "002": 951,
      "Ãªncias": 952,
      "Ġsistema": 953,
      "Ġau": 954,
      "Ġoi": 955,
      "mais": 956,
      "Ġven": 957,
      "Ġtrans": 958,
      "gen": 959,
      "bo": 960,
      "publi": 961,
      "dena": 962,
      "rin": 963,
      "Ġsal": 964,
      "Ġ22": 965,
      "Ġfer": 966,
      "Ġcor": 967,
      "tenÃ§Ã£o": 968,
      "Ġhospital": 969,
      "amento": 970,
      "Ġtelef": 971,
      "Ġreti": 972,
      "..": 973,
      "Ġdias": 974,
      "Ġcont": 975,
      "Ġjos": 976,
      "Ġsantos": 977,
      "ĠlicitatÃ³rio": 978,
      "Ġra": 979,
      "Ġpregoeira": 980,
      "45": 981,
      "reira": 982,
      "fe": 983,
      "Ġta": 984,
      "ĠespecificaÃ§Ãµes": 985,
      "lan": 986,
      "Ġlu": 987,
      "lis": 988,
      "Ġnacional": 989,
      "ix": 990,
      "Ġrecu": 991,
      "Ġcin": 992,
      "Ġmes": 993,
      "Ġaos": 994,
      "ulga": 995,
      "Ġdire": 996,
      "ĠÃ©": 997,
      "38": 998,
      "Ġinter": 999,
      "bele": 1000,
      "ado": 1001,
      "07": 1002,
      "Ġsrp": 1003,
      "Ġencontra": 1004,
      "36": 1005,
      "horÃ¡rio": 1006,
      "licitacoes": 1007,
      "Ġdemais": 1008,
      "Ġforma": 1009,
      "tica": 1010,
      "Ġestabele": 1011,
      "Ġconstru": 1012,
      "Ġvig": 1013,
      "rÃŃ": 1014,
      "Ġinscri": 1015,
      "ren": 1016,
      "34": 1017,
      "Ġcomer": 1018,
      "Ġcha": 1019,
      "ais": 1020,
      "ĠadministraÃ§Ã£o": 1021,
      "Ġcamp": 1022,
      "Ġrio": 1023,
      "Ġali": 1024,
      "entes": 1025,
      "Ġestabeleci": 1026,
      "ves": 1027,
      "titu": 1028,
      "16": 1029,
      "Ġleg": 1030,
      "39": 1031,
      "ficaÃ§Ã£o": 1032,
      "Ġrecebimento": 1033,
      "Ġus": 1034,
      "mentaÃ§Ã£o": 1035,
      "ada": 1036,
      "este": 1037,
      "dencia": 1038,
      "Ġbo": 1039,
      "ins": 1040,
      "side": 1041,
      "22": 1042,
      "75": 1043,
      "liv": 1044,
      "Ġlocal": 1045,
      "ĠserviÃ§o": 1046,
      "Ġimp": 1047,
      "que": 1048,
      "Ġextra": 1049,
      "Ġdeman": 1050,
      "esso": 1051,
      "ĠÃ¡": 1052,
      "ĠtÃ©": 1053,
      "Ġnove": 1054,
      "ena": 1055,
      "Ġsanta": 1056,
      "rias": 1057,
      "Ġtermos": 1058,
      "Ġtelefone": 1059,
      "Ġpla": 1060,
      "Ġpublica": 1061,
      "Ġjo": 1062,
      "ensa": 1063,
      "Ġsede": 1064,
      "Ġmanu": 1065,
      "Ġmaterial": 1066,
      "tenta": 1067,
      "35": 1068,
      "ir": 1069,
      "iva": 1070,
      "Ġmin": 1071,
      "Ġnor": 1072,
      "rente": 1073,
      "Ġconsta": 1074,
      "plo": 1075,
      "Ġpresi": 1076,
      "Ġcas": 1077,
      "Ġcomunica": 1078,
      "900": 1079,
      "Ġbrasil": 1080,
      "Ġvence": 1081,
      "Ġk": 1082,
      "gia": 1083,
      "37": 1084,
      "Ġcredencia": 1085,
      "cer": 1086,
      "Ġlote": 1087,
      "Ġquant": 1088,
      "ms": 1089,
      "gua": 1090,
      "ncp": 1091,
      "creto": 1092,
      "denador": 1093,
      "Ġbar": 1094,
      "iores": 1095,
      "Ġpresidente": 1096,
      "xi": 1097,
      "cni": 1098,
      "47": 1099,
      "Ġcp": 1100,
      "Ġofi": 1101,
      "ribui": 1102,
      "comprasnet": 1103,
      "28": 1104,
      "Ġestabelecidas": 1105,
      "Ġdespes": 1106,
      "ĠmanutenÃ§Ã£o": 1107,
      "Ġjulga": 1108,
      "ĠjosÃ©": 1109,
      "ll": 1110,
      "**": 1111,
      "19": 1112,
      "ĠadjudicaÃ§Ã£o": 1113,
      "46": 1114,
      "Ġfutura": 1115,
      "Ġdispensa": 1116,
      "ĠrealizarÃ¡": 1117,
      "nio": 1118,
      "tÃ£o": 1119,
      "18": 1120,
      "rado": 1121,
      "ĠtÃ©cni": 1122,
      "Ġpesso": 1123,
      "decompras": 1124,
      "55": 1125,
      "tri": 1126,
      "df": 1127,
      "Ġesco": 1128,
      "publicas": 1129,
      "27": 1130,
      "tina": 1131,
      "Ġlicitacao": 1132,
      "vis": 1133,
      "Ġcujo": 1134,
      "val": 1135,
      "gem": 1136,
      "rÃ©": 1137,
      "decompraspublicas": 1138,
      "ch": 1139,
      "zentos": 1140,
      "Ġoliv": 1141,
      "17": 1142,
      "Ġuso": 1143,
      "car": 1144,
      "20": 1145,
      "Ġextrato": 1146,
      "con": 1147,
      "Ġmi": 1148,
      "Ġcomple": 1149,
      "Ġpaul": 1150,
      "portaldecompraspublicas": 1151,
      "Ġoliveira": 1152,
      "29": 1153,
      "Ã¡ria": 1154,
      "Ġfunda": 1155,
      "Ġpresente": 1156,
      "Ġjulgamento": 1157,
      "Ġadi": 1158,
      "Ġ20": 1159,
      "ino": 1160,
      "Ġpi": 1161,
      "Ġ05": 1162,
      "Ġtra": 1163,
      "Ġatendimento": 1164,
      "Ġset": 1165,
      "resenta": 1166,
      "Ġsuas": 1167,
      "88": 1168,
      "14": 1169,
      "onal": 1170,
      "pt": 1171,
      "ĠpoderÃ£o": 1172,
      "Ġchama": 1173,
      "Ġdecreto": 1174,
      "odo": 1175,
      "Ġsou": 1176,
      "Ġii": 1177,
      "Ġobti": 1178,
      "porte": 1179,
      "Ġquatro": 1180,
      "Ġoficial": 1181,
      "um": 1182,
      "pr": 1183,
      "haria": 1184,
      "ĠperÃŃ": 1185,
      "ares": 1186,
      "Ġengen": 1187,
      "Ġprojet": 1188,
      "Ġsocial": 1189,
      "Ġve": 1190,
      "anc": 1191,
      "Ġexig": 1192,
      "dio": 1193,
      "Ġsouza": 1194,
      "Ġata": 1195,
      "Ġab": 1196,
      "ndo": 1197,
      "Ġdist": 1198,
      "Ġ,": 1199,
      "ĠpoderÃ¡": 1200,
      "ĠexigÃªncias": 1201,
      "polis": 1202,
      "Ġdocu": 1203,
      "ser": 1204,
      "rsos": 1205,
      "Ġengenharia": 1206,
      "fa": 1207,
      "lu": 1208,
      "Ġrep": 1209,
      "Ġconsulta": 1210,
      "ĠrealizaÃ§Ã£o": 1211,
      "ĠperÃŃodo": 1212,
      "endo": 1213,
      "Ġcer": 1214,
      "Ġdestina": 1215,
      "Ġnas": 1216,
      "Ġ29": 1217,
      "Ġsetor": 1218,
      "Ã´ni": 1219,
      "Ġcredenciamento": 1220,
      "rencia": 1221,
      "Ġsegui": 1222,
      "ase": 1223,
      "qua": 1224,
      "49": 1225,
      "gmail": 1226,
      "Ġ06": 1227,
      "Ã©rio": 1228,
      "Ġrefe": 1229,
      "Ġw": 1230,
      "ĠÃº": 1231,
      "56": 1232,
      "2022": 1233,
      "Ġsupra": 1234,
      "87": 1235,
      "Ġdespesas": 1236,
      "50": 1237,
      "Ġara": 1238,
      "Ġinstitu": 1239,
      "cha": 1240,
      "0000": 1241,
      "33": 1242,
      "Ġha": 1243,
      "Ġperman": 1244,
      "Ġvisando": 1245,
      "eni": 1246,
      "Ġsus": 1247,
      "Ġanexo": 1248,
      "Ġmeses": 1249,
      "Ġquantidades": 1250,
      "Ġoito": 1251,
      "ĠjurÃŃ": 1252,
      "Ġpaulo": 1253,
      "Ġordenador": 1254,
      "ĠvigÃªncia": 1255,
      "Ġproposta": 1256,
      "Ġjan": 1257,
      "rÃª": 1258,
      "tivos": 1259,
      "plomas": 1260,
      "89": 1261,
      "pen": 1262,
      "Ġprodu": 1263,
      "Ã¡s": 1264,
      "Ġobra": 1265,
      "Ġbair": 1266,
      "Ġdu": 1267,
      "clus": 1268,
      "Ġneste": 1269,
      "ĠsecretÃ¡rio": 1270,
      "Ġsuperi": 1271,
      "57": 1272,
      "dra": 1273,
      "ĠconstruÃ§Ã£o": 1274,
      "tamento": 1275,
      "Ġum": 1276,
      "Ġinscrita": 1277,
      "ita": 1278,
      "Ġfundo": 1279,
      "rinta": 1280,
      "rj": 1281,
      "Ġmaria": 1282,
      "mes": 1283,
      "Ġbairro": 1284,
      "Ġsete": 1285,
      "vas": 1286,
      "par": 1287,
      "32": 1288,
      "lizaÃ§Ã£o": 1289,
      "86": 1290,
      "Ġlin": 1291,
      "inh": 1292,
      "Ġrecursos": 1293,
      "Ã§as": 1294,
      "ÃŃcul": 1295,
      "dro": 1296,
      "rados": 1297,
      "000001": 1298,
      "Ġconhe": 1299,
      "Ġpos": 1300,
      "Ã¡rios": 1301,
      "Ġdiplomas": 1302,
      "Ġseis": 1303,
      "Ġcul": 1304,
      "quenta": 1305,
      "etro": 1306,
      "Ġcep": 1307,
      "los": 1308,
      "raÃ§Ãµes": 1309,
      "201": 1310,
      "elo": 1311,
      "bilidade": 1312,
      "ĠveÃŃcul": 1313,
      "taforma": 1314,
      "Ġ28": 1315,
      "Ġon": 1316,
      "Ġinstal": 1317,
      "Ġunidade": 1318,
      "ene": 1319,
      "Ġregional": 1320,
      "Ġsupracita": 1321,
      "logia": 1322,
      "versi": 1323,
      "Ġescola": 1324,
      "eto": 1325,
      "Ġfin": 1326,
      "dri": 1327,
      "Ġ31": 1328,
      "Ġplataforma": 1329,
      "rÃªs": 1330,
      "ĠpÃºblicas": 1331,
      "ĠdisposiÃ§Ã£o": 1332,
      "Ġcomplementa": 1333,
      "ja": 1334,
      "40": 1335,
      "tar": 1336,
      "ĠmÃ©": 1337,
      "Ġcomercio": 1338,
      "Ġcl": 1339,
      "Ġinci": 1340,
      "Ġinstru": 1341,
      "Ġcultura": 1342,
      "Ġconstantes": 1343,
      "Ġunidades": 1344,
      "Ġassina": 1345,
      "Ġam": 1346,
      "rada": 1347,
      "Ġmedica": 1348,
      "Ġdeste": 1349,
      "Ġresulta": 1350,
      "tora": 1351,
      "Ġaveni": 1352,
      "osa": 1353,
      "tima": 1354,
      "Ġdescri": 1355,
      "cla": 1356,
      "pncp": 1357,
      "Ġfran": 1358,
      "Ġcontratante": 1359,
      "67": 1360,
      "ou": 1361,
      "Ġuniversi": 1362,
      "Ġita": 1363,
      "Ġcpl": 1364,
      "lh": 1365,
      "tais": 1366,
      "85": 1367,
      "Ġrela": 1368,
      "bll": 1369,
      "Ġnova": 1370,
      "Ġsala": 1371,
      "Ġconhecimento": 1372,
      "Ġavenida": 1373,
      "nico": 1374,
      "Ġmaiores": 1375,
      "Ġgeral": 1376,
      "Ġinf": 1377,
      "mar": 1378,
      "Ġges": 1379,
      "tÃ¡ria": 1380,
      "Ġdiretor": 1381,
      "Ġproce": 1382,
      "zaÃ§Ã£o": 1383,
      "Ġdiver": 1384,
      "ĠbÃ¡": 1385,
      "pp": 1386,
      "bili": 1387,
      "Ġcr": 1388,
      "pre": 1389,
      "reci": 1390,
      "Ġru": 1391,
      "Ġobras": 1392,
      "istÃªncia": 1393,
      "Ġcorre": 1394,
      "eza": 1395,
      "sta": 1396,
      "grama": 1397,
      "son": 1398,
      "ĠserÃ£o": 1399,
      "Ġvencedora": 1400,
      "venta": 1401,
      "Ġlegal": 1402,
      "elho": 1403,
      "Ġinciso": 1404,
      "Ġresultado": 1405,
      "Ġseg": 1406,
      "Âª": 1407,
      "/.": 1408,
      "Ġliv": 1409,
      "renta": 1410,
      "Ġ9001": 1411,
      "Ġedi": 1412,
      "Ġapo": 1413,
      "gover": 1414,
      "Ġcinquenta": 1415,
      ");": 1416,
      "pm": 1417,
      "bertura": 1418,
      "Ġpermanente": 1419,
      "Ġjaneiro": 1420,
      "48": 1421,
      "Ġfoi": 1422,
      "ĠpublicaÃ§Ã£o": 1423,
      "93": 1424,
      "Ġpri": 1425,
      "Ġant": 1426,
      "Ġreferente": 1427,
      "Ġrealizar": 1428,
      "43": 1429,
      "Ġ36": 1430,
      "23": 1431,
      "90": 1432,
      "Ġ/": 1433,
      "Ġnovo": 1434,
      "Ġobjeti": 1435,
      "Ġpresen": 1436,
      "rÃ³": 1437,
      "ribuiÃ§Ãµes": 1438,
      "Ġassinatura": 1439,
      "Ġpessoa": 1440,
      "ana": 1441,
      "cios": 1442,
      "Ġrodri": 1443,
      "cima": 1444,
      "dei": 1445,
      "Ġgra": 1446,
      "ĠalteraÃ§Ãµes": 1447,
      "rn": 1448,
      "idade": 1449,
      "Ġten": 1450,
      "Ġportaria": 1451,
      "97": 1452,
      "ĠestÃ¡": 1453,
      "Ġmedicamentos": 1454,
      "ĠbÃ¡si": 1455,
      "Ġsuspen": 1456,
      "ĠnÃ£o": 1457,
      "Ġpublicada": 1458,
      "rea": 1459,
      "Ġale": 1460,
      "Ġarti": 1461,
      "Ġout": 1462,
      "ula": 1463,
      "tame": 1464,
      "ĠestarÃ¡": 1465,
      "ĠjoÃ£o": 1466,
      "ge": 1467,
      "Ġeletro": 1468,
      "ĠassistÃªncia": 1469,
      "Ġcinco": 1470,
      "Ġdemandas": 1471,
      "Ġsub": 1472,
      "Ġpresencial": 1473,
      "hs": 1474,
      "Ġnoventa": 1475,
      "Ġtre": 1476,
      "Ġpr": 1477,
      "Ġsul": 1478,
      "Ġdois": 1479,
      "Ġacor": 1480,
      "cent": 1481,
      "Ġvinte": 1482,
      "51": 1483,
      "raes": 1484,
      "ÃŃti": 1485,
      "Ġga": 1486,
      "Ġapoio": 1487,
      "Ġcertame": 1488,
      "Ġcarlos": 1489,
      "Ġacordo": 1490,
      "Ġacima": 1491,
      "Ġrealizada": 1492,
      "Ġaditivo": 1493,
      "ĠdisponÃŃveis": 1494,
      "ixa": 1495,
      "Ã©m": 1496,
      "ĠatribuiÃ§Ãµes": 1497,
      "xx": 1498,
      "bnc": 1499,
      "isla": 1500,
      "licitanet": 1501,
      "tin": 1502,
      "vol": 1503,
      "Ġsites": 1504,
      "vil": 1505,
      "Ġestima": 1506,
      "Ġcri": 1507,
      "Ġprof": 1508,
      "Ġbem": 1509,
      "Ġexclus": 1510,
      "Ġempresas": 1511,
      "Ġur": 1512,
      "ĠsecretÃ¡ria": 1513,
      "tarias": 1514,
      "Ġlink": 1515,
      "Ġ9000": 1516,
      "Ġ35": 1517,
      "trutura": 1518,
      "ĠÃ³": 1519,
      "Ġcontratos": 1520,
      "Ġprodutos": 1521,
      "96": 1522,
      "Ġsupracitada": 1523,
      "41": 1524,
      "be": 1525,
      "Ġdepar": 1526,
      "Ġprocess": 1527,
      "Ã´nio": 1528,
      "80": 1529,
      "ju": 1530,
      "oria": 1531,
      "Ġja": 1532,
      "Ġtrinta": 1533,
      "Ġoitenta": 1534,
      "ĠveÃŃculos": 1535,
      "Ġapli": 1536,
      "77": 1537,
      "cei": 1538,
      "rem": 1539,
      "Ġsitu": 1540,
      "pb": 1541,
      "ĠcÃ³": 1542,
      "nten": 1543,
      "Ġcomunicamos": 1544,
      ".:": 1545,
      "006": 1546,
      "sidec": 1547,
      "Ġparticip": 1548,
      "Ã³gi": 1549,
      "ĠsuspensÃ£o": 1550,
      "Ġtem": 1551,
      "Ġgran": 1552,
      "Ġsecretarias": 1553,
      "Ġdivers": 1554,
      "mt": 1555,
      "Ġreso": 1556,
      "dores": 1557,
      "nia": 1558,
      "Ġlima": 1559,
      "rso": 1560,
      "Ġsessenta": 1561,
      "Ġdemanda": 1562,
      "cno": 1563,
      "Ġplan": 1564,
      "ĠorÃ§a": 1565,
      "Ġed": 1566,
      "76": 1567,
      "hia": 1568,
      "ĠsÃŃti": 1569,
      "ÃŃs": 1570,
      "Ġsolicita": 1571,
      "Ġfone": 1572,
      "Ġconside": 1573,
      "Ġquarenta": 1574,
      "Ġferreira": 1575,
      "Ġlegisla": 1576,
      "Ġreabertura": 1577,
      "tre": 1578,
      "ane": 1579,
      "hÃ£o": 1580,
      "teis": 1581,
      "Ġintegra": 1582,
      "cis": 1583,
      "unda": 1584,
      "ĠalteraÃ§Ã£o": 1585,
      "ĠpÃ¡": 1586,
      "Ġaco": 1587,
      "Ġdepartamento": 1588,
      "84": 1589,
      "Ġaberto": 1590,
      "Ġprograma": 1591,
      "Ġlanc": 1592,
      "Ġtransporte": 1593,
      "95": 1594,
      "rcio": 1595,
      "sc": 1596,
      "via": 1597,
      "Ġtu": 1598,
      "Ġcosta": 1599,
      "gaÃ§Ã£o": 1600,
      "Ġrede": 1601,
      "Ġdever": 1602,
      "ram": 1603,
      "Ġdesen": 1604,
      "Ġpena": 1605,
      "Ġseu": 1606,
      "gues": 1607,
      "ĠjurÃŃdica": 1608,
      "vimento": 1609,
      "Ã¢n": 1610,
      "cin": 1611,
      "ril": 1612,
      "Ġsuperinten": 1613,
      "Ġtendo": 1614,
      "ĠtrÃªs": 1615,
      "ĠÃºteis": 1616,
      "Ġlega": 1617,
      "Ġchamamento": 1618,
      "Ġesp": 1619,
      "Ġ34": 1620,
      "Ġalves": 1621,
      "eros": 1622,
      "Ġlances": 1623,
      "Ġpereira": 1624,
      "Ġfern": 1625,
      "Ġsem": 1626,
      "ĠcontrataÃ§Ãµes": 1627,
      "pro": 1628,
      "ori": 1629,
      "Ġbase": 1630,
      "Ġaliment": 1631,
      "Ġdesenvol": 1632,
      "\",": 1633,
      "Ġgover": 1634,
      "Ġ201": 1635,
      "004": 1636,
      "ano": 1637,
      "ados": 1638,
      "lha": 1639,
      "Ġhi": 1640,
      "Ġ33": 1641,
      "Ġfica": 1642,
      "Ġpas": 1643,
      "Ġconta": 1644,
      "Ġid": 1645,
      "iÃ§Ãµes": 1646,
      "Ġcomplementar": 1647,
      "ĠgestÃ£o": 1648,
      "Ġlegais": 1649,
      "eb": 1650,
      "lizado": 1651,
      "Ġgoi": 1652,
      "lÃ³gi": 1653,
      "vando": 1654,
      "ĠretificaÃ§Ã£o": 1655,
      "Ġana": 1656,
      "Ġrib": 1657,
      "Ġfundamento": 1658,
      "Ġdocumentos": 1659,
      "ĠmÃ£o": 1660,
      "Ġban": 1661,
      "vimentaÃ§Ã£o": 1662,
      "Ġregistrados": 1663,
      "Ġcontratada": 1664,
      "ĠpÃ¡g": 1665,
      "ĠseÃ§Ã£o": 1666,
      "Ġvia": 1667,
      "Ġapresenta": 1668,
      "ur": 1669,
      "Ġsua": 1670,
      "ĠuniÃ£o": 1671,
      "Ġnorte": 1672,
      "ĠÃŃ": 1673,
      "Ã³polis": 1674,
      "Ġprojeto": 1675,
      "Ġbr": 1676,
      "ruz": 1677,
      "Ġestimado": 1678,
      "ÃŃcios": 1679,
      "Ġgrande": 1680,
      "Ġdez": 1681,
      "corre": 1682,
      "Ġonde": 1683,
      "cie": 1684,
      "rito": 1685,
      "ĠfarÃ¡": 1686,
      "cionais": 1687,
      "Ġartigo": 1688,
      "42": 1689,
      "Ġsegunda": 1690,
      "ĠmÃ¡": 1691,
      "98": 1692,
      "Ġope": 1693,
      "Ġconvo": 1694,
      "ĠinstalaÃ§Ã£o": 1695,
      "Ġcrit": 1696,
      "gna": 1697,
      "Ġsex": 1698,
      "Ġens": 1699,
      "tada": 1700,
      "Ġjunto": 1701,
      "ela": 1702,
      "Ġ32": 1703,
      "berto": 1704,
      "Ġurb": 1705,
      "mÃ©": 1706,
      "Ġensino": 1707,
      "doze": 1708,
      "Ġdesenvolvimento": 1709,
      "Ġrepresenta": 1710,
      "uiz": 1711,
      "Ġsetenta": 1712,
      "Ġind": 1713,
      "Ġmais": 1714,
      "60": 1715,
      "Ġcoor": 1716,
      "eno": 1717,
      "Ġminist": 1718,
      "Ġseguintes": 1719,
      "lin": 1720,
      "rando": 1721,
      "Ãªnio": 1722,
      "Ġfrancis": 1723,
      "Ġobjetivando": 1724,
      "pia": 1725,
      "ila": 1726,
      "Ġ37": 1727,
      "ista": 1728,
      "ĠpavimentaÃ§Ã£o": 1729,
      "enda": 1730,
      "ntegra": 1731,
      "ĠantÃ´nio": 1732,
      "Ġqual": 1733,
      "Ã³s": 1734,
      "ĠsÃŃtio": 1735,
      "Ġsexta": 1736,
      "rÃ£o": 1737,
      "2025": 1738,
      "Ġtrabal": 1739,
      "Ġrodrigues": 1740,
      "uÃŃ": 1741,
      "vado": 1742,
      "gas": 1743,
      "pedi": 1744,
      "Ãªneros": 1745,
      "Ġacess": 1746,
      "Ġdesta": 1747,
      "Ġtecno": 1748,
      "81": 1749,
      "trans": 1750,
      "Ġaba": 1751,
      "Ġconselho": 1752,
      "Ġescla": 1753,
      "Ġtodos": 1754,
      "uar": 1755,
      "indo": 1756,
      "ĠgÃªneros": 1757,
      "feira": 1758,
      "Ġexclusiva": 1759,
      "Ġdestinados": 1760,
      "Ġprocedimento": 1761,
      "cho": 1762,
      "Ġlocalizada": 1763,
      "Ġhospitalares": 1764,
      "ĠalimentÃŃcios": 1765,
      "Ġamp": 1766,
      "Ġexpedi": 1767,
      "ĠÃŃntegra": 1768,
      "Ġreforma": 1769,
      "Ġfim": 1770,
      "Ġfrancisco": 1771,
      "leto": 1772,
      "dar": 1773,
      "Ġ9002": 1774,
      "Ġpode": 1775,
      "Ġdisposto": 1776,
      "82": 1777,
      "83": 1778,
      "Ġobtidas": 1779,
      "ĠmÃ©di": 1780,
      "92": 1781,
      "ĠcritÃ©rio": 1782,
      "am": 1783,
      "Ã¢ncia": 1784,
      "esa": 1785,
      "Ġmg": 1786,
      "Ġine": 1787,
      "Ġmunicipais": 1788,
      "Ġprojetos": 1789,
      "Ġcidade": 1790,
      "Ġapa": 1791,
      "Ġmedi": 1792,
      "Ġadjudica": 1793,
      ".,": 1794,
      "65": 1795,
      "Ġhospitalar": 1796,
      "Ġchamada": 1797,
      "63": 1798,
      "midade": 1799,
      "bri": 1800,
      "mei": 1801,
      "Ġama": 1802,
      "Ġinfraes": 1803,
      "transpa": 1804,
      "Ġsen": 1805,
      "diante": 1806,
      "Ġretirada": 1807,
      "Ġdistribui": 1808,
      "Ġhabili": 1809,
      "Ġautor": 1810,
      "Ġlivro": 1811,
      "Ġinfraestrutura": 1812,
      "mÃ¡": 1813,
      "Ġluiz": 1814,
      "Ġreferi": 1815,
      "Ġcontratado": 1816,
      "ĠÃ³r": 1817,
      "Ġcel": 1818,
      "Ġregistros": 1819,
      "ĠprÃ©": 1820,
      "gre": 1821,
      "Ġpb": 1822,
      "eti": 1823,
      "Ġcompleto": 1824,
      "tico": 1825,
      "Ġmodo": 1826,
      "Ġbol": 1827,
      "cro": 1828,
      "poni": 1829,
      "Ġtranspa": 1830,
      "800": 1831,
      "Ġva": 1832,
      "Ġmant": 1833,
      "ust": 1834,
      "Ġmediante": 1835,
      "666": 1836,
      "Ġprocessamento": 1837,
      "las": 1838,
      "lei": 1839,
      "usa": 1840,
      "inhentos": 1841,
      "cel": 1842,
      "ura": 1843,
      "ĠparÃ¡": 1844,
      "Ġ90": 1845,
      "Ġcivil": 1846,
      "54": 1847,
      "Ġ001": 1848,
      "ĠprÃ³": 1849,
      "024": 1850,
      "bora": 1851,
      "Ġinstrumento": 1852,
      "Ġfins": 1853,
      "Ġsele": 1854,
      "Ġjuni": 1855,
      "esta": 1856,
      "Ġvista": 1857,
      "Ġseguinte": 1858,
      "Ġescolar": 1859,
      "Ġdisponi": 1860,
      "ĠpraÃ§a": 1861,
      "61": 1862,
      "71": 1863,
      "rega": 1864,
      "Ġuti": 1865,
      "Ġ2023": 1866,
      "reen": 1867,
      "lio": 1868,
      "lina": 1869,
      "inha": 1870,
      "Ġ44": 1871,
      "dual": 1872,
      "Ġcomercial": 1873,
      "Ġcruz": 1874,
      "Ġconformidade": 1875,
      "Ġpal": 1876,
      "Ġlimp": 1877,
      "Ġ123": 1878,
      "ĠlegislaÃ§Ã£o": 1879,
      "Ġdou": 1880,
      "orro": 1881,
      "Ġprevis": 1882,
      "Ġ39": 1883,
      "ĠÃ¡rea": 1884,
      "Ġpenalidade": 1885,
      "pon": 1886,
      "Ġfil": 1887,
      "Ġcampus": 1888,
      "Ġri": 1889,
      "Ġespecial": 1890,
      "Ġambi": 1891,
      "ct": 1892,
      "Ġpncp": 1893,
      "Ġgon": 1894,
      "Ġconv": 1895,
      "Ġabril": 1896,
      "ĠÃ³rgÃ£o": 1897,
      "ad": 1898,
      "Ġbran": 1899,
      "ona": 1900,
      "Ġ45": 1901,
      "cal": 1902,
      "Ġencontram": 1903,
      "Ġnovecentos": 1904,
      "Ġkm": 1905,
      "cento": 1906,
      "issi": 1907,
      "Ġrecurso": 1908,
      "Ġjunior": 1909,
      "dre": 1910,
      "ris": 1911,
      "vaÃ§Ã£o": 1912,
      "Ġ155": 1913,
      "gital": 1914,
      "Ġmu": 1915,
      "ciais": 1916,
      "Ġgomes": 1917,
      "ĠdeverÃ£o": 1918,
      "ĠgoiÃ¡s": 1919,
      "9000": 1920,
      "ire": 1921,
      "Ġresp": 1922,
      "Ġandar": 1923,
      "Ġcadas": 1924,
      "ntonio": 1925,
      "Ġregime": 1926,
      "Ġrural": 1927,
      "transparencia": 1928,
      "tce": 1929,
      "recimentos": 1930,
      "Ġresol": 1931,
      "Ġexpediente": 1932,
      "Ġ2021": 1933,
      "Ġagri": 1934,
      "Ġlimpeza": 1935,
      "79": 1936,
      "fer": 1937,
      "Ġz": 1938,
      "ĠdiÃ¡rio": 1939,
      "Ġconsiderando": 1940,
      "mf": 1941,
      "tins": 1942,
      "Ġinsu": 1943,
      "Ġdistribuidora": 1944,
      "Ġini": 1945,
      "Ġribeiro": 1946,
      "Ġim": 1947,
      "Ġavisos": 1948,
      "ito": 1949,
      "vio": 1950,
      "pec": 1951,
      "Ġporto": 1952,
      "Ġtemp": 1953,
      "tivi": 1954,
      "Ġbolsa": 1955,
      "70": 1956,
      "ac": 1957,
      "Ġade": 1958,
      "Ġacesso": 1959,
      "inda": 1960,
      "Ã©tri": 1961,
      "Ġ158": 1962,
      "Ġposter": 1963,
      "bb": 1964,
      "uf": 1965,
      "Ã´": 1966,
      "Ġorig": 1967,
      "ĠpeÃ§as": 1968,
      "64": 1969,
      "edi": 1970,
      "Ġobs": 1971,
      "licitacao": 1972,
      "Ġ230": 1973,
      "Ġleil": 1974,
      "Ġesclarecimentos": 1975,
      "gao": 1976,
      "lhi": 1977,
      "Ġoutros": 1978,
      "mÃ©dio": 1979,
      "Ġodo": 1980,
      "quer": 1981,
      "Ġ38": 1982,
      "ĠtransparÃªncia": 1983,
      "Ġresolve": 1984,
      "tÃ©": 1985,
      "tivas": 1986,
      "lizados": 1987,
      "Ġche": 1988,
      "Ġ75": 1989,
      "Ġlabora": 1990,
      "Ġconti": 1991,
      "ĠintermÃ©dio": 1992,
      "Ġsantana": 1993,
      "Ġcorretiva": 1994,
      "dÃªncia": 1995,
      "Ġdiv": 1996,
      "9999": 1997,
      "Ġsp": 1998,
      "Ġjar": 1999,
      "62": 2000,
      "petro": 2001,
      "Ġfar": 2002,
      "ÃŃni": 2003,
      "Ġcento": 2004,
      "Ġodonto": 2005,
      "hor": 2006,
      "Ġprevent": 2007,
      "Ġvir": 2008,
      "/,": 2009,
      "nÃ¡": 2010,
      "onta": 2011,
      "69": 2012,
      "Ġx": 2013,
      "Ġrevo": 2014,
      "dim": 2015,
      "Ã©rcio": 2016,
      "Ġforam": 2017,
      "Ã¡vel": 2018,
      "ficado": 2019,
      "cultura": 2020,
      "Ġuniversidade": 2021,
      "editais": 2022,
      "\".": 2023,
      "Ġincl": 2024,
      "ĠelÃ©tri": 2025,
      "Ġequipe": 2026,
      "Ġeire": 2027,
      "ĠlocaÃ§Ã£o": 2028,
      "gos": 2029,
      "ĠnÃº": 2030,
      "ÃŃsi": 2031,
      "ixo": 2032,
      "Ġposteriores": 2033,
      "Ġainda": 2034,
      "Ġvin": 2035,
      "Ġinstituto": 2036,
      "ĠorÃ§ament": 2037,
      "ĠministÃ©rio": 2038,
      "Ġobser": 2039,
      "Ġgua": 2040,
      "Ġ46": 2041,
      "Ġinsumos": 2042,
      "xo": 2043,
      "Ġdf": 2044,
      "Ġcla": 2045,
      "ĠfÃŃsi": 2046,
      "cionado": 2047,
      "Ã¢ndia": 2048,
      "Ġpreventiva": 2049,
      "ete": 2050,
      "ens": 2051,
      "Ġestra": 2052,
      "Ġtel": 2053,
      "Ġocorre": 2054,
      "cant": 2055,
      "turas": 2056,
      "Ã¡l": 2057,
      "ĠeletrÃ´nicos": 2058,
      "Ġsousa": 2059,
      "Ġ71": 2060,
      "ĠunitÃ¡rio": 2061,
      "luÃ§Ã£o": 2062,
      "Ġprim": 2063,
      "zer": 2064,
      "Ġfro": 2065,
      "Ġ64": 2066,
      "Ġtamb": 2067,
      "uindo": 2068,
      "Ġsendo": 2069,
      "cisÃ£o": 2070,
      "assi": 2071,
      "eiras": 2072,
      "Ġprorro": 2073,
      "Ġeireli": 2074,
      "ero": 2075,
      "ĠtÃ©cnica": 2076,
      "Ġgratu": 2077,
      "Ġcaixa": 2078,
      "ĠanÃ¡": 2079,
      "Ġcontin": 2080,
      "Ġtecnologia": 2081,
      "74": 2082,
      "quin": 2083,
      "ton": 2084,
      "ĠcomÃ©rcio": 2085,
      "Ġsanto": 2086,
      "ranÃ§a": 2087,
      "Ġpedro": 2088,
      "Ġrodo": 2089,
      "lhimento": 2090,
      "Ġchefe": 2091,
      "hos": 2092,
      "Ã©ri": 2093,
      "Ġmartins": 2094,
      "Ġcampo": 2095,
      "ĠÃ¡gua": 2096,
      "vor": 2097,
      "Ġativi": 2098,
      "ĠconvÃªnio": 2099,
      "52": 2100,
      "bras": 2101,
      "Ġantonio": 2102,
      "est": 2103,
      "eiros": 2104,
      "Ġfortal": 2105,
      "Ġinternet": 2106,
      "Ġoitocentos": 2107,
      "Ġeletronico": 2108,
      "umo": 2109,
      "Ġbahia": 2110,
      "ĠespÃ©": 2111,
      "ĠseleÃ§Ã£o": 2112,
      "ios": 2113,
      "liz": 2114,
      "ĠestÃ£o": 2115,
      "Ġdirei": 2116,
      "Ġhomologo": 2117,
      "gibilidade": 2118,
      "Ġsupri": 2119,
      "ĠpÃ¡gina": 2120,
      "73": 2121,
      "9001": 2122,
      "tados": 2123,
      "tual": 2124,
      "Ġgru": 2125,
      "Ġinteresse": 2126,
      "Ġfernan": 2127,
      "bosa": 2128,
      "xigibilidade": 2129,
      "ĠjurÃŃdi": 2130,
      "Ġduzentos": 2131,
      "Ġalex": 2132,
      "ĠtambÃ©m": 2133,
      "up": 2134,
      "Ġexa": 2135,
      "Ġcarval": 2136,
      "ĠtÃ©cnico": 2137,
      "nect": 2138,
      "undo": 2139,
      "Ġfavor": 2140,
      "ĠespÃ©cie": 2141,
      "liar": 2142,
      "ĠapÃ³s": 2143,
      "Ġquatrocentos": 2144,
      "ĠhabilitaÃ§Ã£o": 2145,
      "68": 2146,
      "bra": 2147,
      "Ġtodas": 2148,
      "Ġinexigibilidade": 2149,
      "petronect": 2150,
      "ias": 2151,
      "Ġpelos": 2152,
      "Ġpublicado": 2153,
      "Ġtrabalho": 2154,
      "Ġfilho": 2155,
      "Ġpia": 2156,
      "Ġsei": 2157,
      "ticos": 2158,
      "Ġiv": 2159,
      "lise": 2160,
      "Ġfl": 2161,
      "Ġauto": 2162,
      "ĠbÃ¡sica": 2163,
      "Ġcarvalho": 2164,
      "srp": 2165,
      "Ġfis": 2166,
      "tores": 2167,
      "sao": 2168,
      "Ġincluindo": 2169,
      "jamento": 2170,
      "Ġele": 2171,
      "Ġblo": 2172,
      "ĠobtenÃ§Ã£o": 2173,
      "Ġfase": 2174,
      "Ġ40": 2175,
      "Ġ55": 2176,
      "Ġmec": 2177,
      "Ġsuperintendente": 2178,
      "Ġsoares": 2179,
      "Ġagricultura": 2180,
      "cina": 2181,
      "Ġpare": 2182,
      "Ġ002": 2183,
      "Ġquinhentos": 2184,
      "mentais": 2185,
      "Ġsuperior": 2186,
      "http": 2187,
      "ude": 2188,
      "Ġplane": 2189,
      "Ġconvoca": 2190,
      "Ġabaixo": 2191,
      "meida": 2192,
      "72": 2193,
      "Ġcan": 2194,
      "Ġandra": 2195,
      "Ġcampos": 2196,
      "Ġfinal": 2197,
      "ĠimÃ³": 2198,
      "dois": 2199,
      "Ġadministrativa": 2200,
      "liaÃ§Ã£o": 2201,
      "Ġfrei": 2202,
      "Ġbll": 2203,
      "vinte": 2204,
      "Ġbarbosa": 2205,
      "hÃµes": 2206,
      "inho": 2207,
      "Ġver": 2208,
      "Ġmag": 2209,
      "Ġhora": 2210,
      "Ġdiversos": 2211,
      "Ġtrib": 2212,
      "med": 2213,
      "Ġminas": 2214,
      "Ġcontidas": 2215,
      "Ġdevi": 2216,
      "leo": 2217,
      "Ġleia": 2218,
      "embro": 2219,
      "Ġnormas": 2220,
      "ĠpiauÃŃ": 2221,
      "Ġserem": 2222,
      "uais": 2223,
      "Ġagos": 2224,
      "200": 2225,
      "Ġpm": 2226,
      "dimentos": 2227,
      "Ġalmeida": 2228,
      "Ġrealizado": 2229,
      "500": 2230,
      "Ġvila": 2231,
      "Ġalegre": 2232,
      "Ġjardim": 2233,
      "rante": 2234,
      "Ġgu": 2235,
      "Ġfortaleza": 2236,
      "Ġsan": 2237,
      "Ġlotes": 2238,
      "ĠuniversitÃ¡rio": 2239,
      "Ġgoverno": 2240,
      "bu": 2241,
      "Ġarma": 2242,
      "Ġcontro": 2243,
      "Ġdireta": 2244,
      "ĠrelaÃ§Ã£o": 2245,
      "Ġsituada": 2246,
      "Ġacolhimento": 2247,
      "pu": 2248,
      "radas": 2249,
      "Ġato": 2250,
      "esus": 2251,
      "53": 2252,
      "ĠlÃª": 2253,
      "Ġela": 2254,
      "sal": 2255,
      "Ã§u": 2256,
      "Ġproc": 2257,
      "Ġrespec": 2258,
      "Ġvincul": 2259,
      "nizaÃ§Ã£o": 2260,
      "riti": 2261,
      "ques": 2262,
      "Ġuma": 2263,
      "Ġsobre": 2264,
      "ĠseguranÃ§a": 2265,
      "Ġiii": 2266,
      "mal": 2267,
      "ĠÂ": 2268,
      "Ġ49": 2269,
      "unes": 2270,
      "Ġquadra": 2271,
      "Ġrespon": 2272,
      "fo": 2273,
      "ĠmÃ³": 2274,
      "Ġbu": 2275,
      "Ġcal": 2276,
      "Ġtempo": 2277,
      "Ġgratuita": 2278,
      "Ġplanejamento": 2279,
      "Ġestadual": 2280,
      "Ġpol": 2281,
      "Ġpertin": 2282,
      "ao": 2283,
      "eito": 2284,
      "Ġsalva": 2285,
      "Ġtrezentos": 2286,
      "78": 2287,
      "Ġrei": 2288,
      "Ġasf": 2289,
      "Ġconsumo": 2290,
      "ximo": 2291,
      "91": 2292,
      "tado": 2293,
      "mero": 2294,
      "ĠorÃ§amentÃ¡ria": 2295,
      "Ġclassi": 2296,
      "Ġpes": 2297,
      "Ġano": 2298,
      "Ã£es": 2299,
      "Ġindi": 2300,
      "095": 2301,
      "Ġsubs": 2302,
      "Ġmer": 2303,
      "Ġgerente": 2304,
      "chado": 2305,
      "ior": 2306,
      "Ã§al": 2307,
      "Ġ42": 2308,
      "Ġ48": 2309,
      "toria": 2310,
      "visÃ£o": 2311,
      "Ġsetecentos": 2312,
      "ĠleilÃ£o": 2313,
      "Ã¡rias": 2314,
      "ĠmilhÃµes": 2315,
      "Ġfonte": 2316,
      "Ġcasa": 2317,
      "serh": 2318,
      "):": 2319,
      "asse": 2320,
      "Ġservicos": 2321,
      "Ġ57": 2322,
      "ĠregiÃ£o": 2323,
      "quatro": 2324,
      "Ġ000": 2325,
      "ĠparanÃ¡": 2326,
      "Ġuf": 2327,
      "ĠgonÃ§al": 2328,
      "Ġdireito": 2329,
      "0002": 2330,
      "Ġsito": 2331,
      "Ġfami": 2332,
      "Ġfrota": 2333,
      "lizando": 2334,
      "Ġagosto": 2335,
      "usto": 2336,
      "Ġ901": 2337,
      "ĠendereÃ§os": 2338,
      "Ġlopes": 2339,
      "Ġ50": 2340,
      "Ġdiversas": 2341,
      "Ġori": 2342,
      "Ġjose": 2343,
      "ĠdocumentaÃ§Ã£o": 2344,
      "Ġprofissi": 2345,
      "Ġparecer": 2346,
      "uma": 2347,
      "dido": 2348,
      "Ġfeira": 2349,
      "Ġbel": 2350,
      "Ġjesus": 2351,
      "Ġseiscentos": 2352,
      "mbro": 2353,
      "Ġinfor": 2354,
      "Ġmicro": 2355,
      "Ġoutras": 2356,
      "Ġdisponibi": 2357,
      "Ġandrade": 2358,
      "aÃ§Ãµes": 2359,
      "ck": 2360,
      "ĠcÃ³di": 2361,
      "Ġ41": 2362,
      "Ġrocha": 2363,
      "cen": 2364,
      "Ġsin": 2365,
      "003": 2366,
      "signa": 2367,
      "Ġexer": 2368,
      "ncel": 2369,
      "264": 2370,
      "Ġident": 2371,
      "Ġprefeita": 2372,
      "mica": 2373,
      "Ġfaz": 2374,
      "Ġbanco": 2375,
      "Ġdivulga": 2376,
      "pÃŃ": 2377,
      "Ġjun": 2378,
      "Ġ65": 2379,
      "Ġzona": 2380,
      "Ġsalvador": 2381,
      "are": 2382,
      "Ġcentral": 2383,
      "443": 2384,
      "Ġpessoas": 2385,
      "deira": 2386,
      "Ġcoordenador": 2387,
      "pla": 2388,
      "Ġgerencia": 2389,
      "Ġnovembro": 2390,
      "Ġcaso": 2391,
      "Ġpassa": 2392,
      "ĠÂ§": 2393,
      "Ġmt": 2394,
      "novo": 2395,
      "cons": 2396,
      "ĠasfÃ¡l": 2397,
      "ara": 2398,
      "edu": 2399,
      "Ġnum": 2400,
      "Ġjul": 2401,
      "Ġfornece": 2402,
      "reende": 2403,
      "ĠcÃ³digo": 2404,
      "Ġbra": 2405,
      "Ġquin": 2406,
      "Ġporte": 2407,
      "Ġ98": 2408,
      "Ġ43": 2409,
      "Ġcomplementares": 2410,
      "ĠnÃºmero": 2411,
      "Ġcontinua": 2412,
      "94": 2413,
      "Ġpaga": 2414,
      "Ġbe": 2415,
      "Ġmunicipio": 2416,
      "ĠalimentaÃ§Ã£o": 2417,
      "Ġobtido": 2418,
      "ĠparticipaÃ§Ã£o": 2419,
      "Ġsr": 2420,
      "istem": 2421,
      "cada": 2422,
      "Ġfra": 2423,
      "tifica": 2424,
      "ÃŃvel": 2425,
      "Ġparcel": 2426,
      "seis": 2427,
      "1111": 2428,
      "Ġvencedor": 2429,
      "Ġcris": 2430,
      "ĠmÃ©dico": 2431,
      "Ġdistrito": 2432,
      "Ġdestinado": 2433,
      "Ġbranco": 2434,
      "cp": 2435,
      "ira": 2436,
      "trinta": 2437,
      "ramento": 2438,
      "tuba": 2439,
      "Ġprote": 2440,
      "bllcompras": 2441,
      "Ġatividades": 2442,
      "Ġgratuitamente": 2443,
      "ap": 2444,
      "Ġsequ": 2445,
      "hora": 2446,
      "Ġobtidos": 2447,
      "ĠinstituiÃ§Ã£o": 2448,
      "Ġdezembro": 2449,
      "Ġautori": 2450,
      "ĠrevogaÃ§Ã£o": 2451,
      "fÃŃcio": 2452,
      "Ġac": 2453,
      "Ġadia": 2454,
      "Ġautos": 2455,
      "rma": 2456,
      "niza": 2457,
      "dez": 2458,
      "Ġtocant": 2459,
      "Ġ67": 2460,
      "Ġquais": 2461,
      "Ġeditais": 2462,
      "ĠsolicitaÃ§Ã£o": 2463,
      "Ġopera": 2464,
      "Ġorigem": 2465,
      "Ġbloco": 2466,
      "mil": 2467,
      "trÃªs": 2468,
      "Ġ[": 2469,
      "Ġorga": 2470,
      "Ġdiretora": 2471,
      "Ġcrist": 2472,
      "cm": 2473,
      "zi": 2474,
      "ĠdecisÃ£o": 2475,
      "nica": 2476,
      "Ġconcei": 2477,
      "Ġ47": 2478,
      "Ġ51": 2479,
      "Ġhomologar": 2480,
      "Ġassess": 2481,
      "ĠtÃ©cnicos": 2482,
      "quinas": 2483,
      "Ġfernandes": 2484,
      "58": 2485,
      "Ġnunes": 2486,
      "ine": 2487,
      "Ã¡veis": 2488,
      "Ġ63": 2489,
      "Ġmarc": 2490,
      "ĠodontolÃ³gi": 2491,
      "Ġfamiliar": 2492,
      "istemas": 2493,
      "Ġatu": 2494,
      "ulaÃ§Ã£o": 2495,
      "Ġconsul": 2496,
      "duzentos": 2497,
      "nove": 2498,
      "gens": 2499,
      "boraÃ§Ã£o": 2500,
      "Ġfinanc": 2501,
      "Ġev": 2502,
      "ĠnecessÃ¡rios": 2503,
      "Ġand": 2504,
      "Ġ2018": 2505,
      "Ġapareci": 2506,
      "cente": 2507,
      "emp": 2508,
      "mnet": 2509,
      "Ġsena": 2510,
      "mara": 2511,
      "resen": 2512,
      "Ġ56": 2513,
      "Ġapro": 2514,
      "Ġ003": 2515,
      "gÃªncia": 2516,
      "ores": 2517,
      "ĠÃ¢": 2518,
      "Ġadm": 2519,
      "***": 2520,
      "Ġeduar": 2521,
      "Ġurban": 2522,
      "ĠnumÃ©ri": 2523,
      "adas": 2524,
      "toco": 2525,
      "unal": 2526,
      "Ġmoreira": 2527,
      "Ġplani": 2528,
      "Ġrepasse": 2529,
      "Ġdiretoria": 2530,
      "Ġtribunal": 2531,
      "ĠexercÃŃ": 2532,
      "9002": 2533,
      "bas": 2534,
      "Ġmelo": 2535,
      "ÃŃveis": 2536,
      "26443": 2537,
      "ĠanÃ¡lise": 2538,
      "Ġjulho": 2539,
      "nd": 2540,
      "Ġmem": 2541,
      "Ġreci": 2542,
      "Ġeste": 2543,
      "Ġjus": 2544,
      "Ġ54": 2545,
      "mite": 2546,
      "https": 2547,
      "Ġtocantins": 2548,
      "mbi": 2549,
      "Ġcomb": 2550,
      "Ġregula": 2551,
      "Ġsuper": 2552,
      "Ã¢nia": 2553,
      "Ġlago": 2554,
      "ĠcÃ³pia": 2555,
      "Ġhigi": 2556,
      "Ġambiente": 2557,
      "Ġemprei": 2558,
      "Ġ60": 2559,
      "ploma": 2560,
      "ĠmÃ¡ximo": 2561,
      "rar": 2562,
      "Ġvo": 2563,
      "Ġ52": 2564,
      "Ġ53": 2565,
      "ĠinstalaÃ§Ãµes": 2566,
      "mÃ¡tica": 2567,
      "ĠexercÃŃcio": 2568,
      "Ġmun": 2569,
      "Ġrosa": 2570,
      "ĠjÃº": 2571,
      "Ġencer": 2572,
      "ĠaquisiÃ§Ãµes": 2573,
      "arÃ¡": 2574,
      "2020": 2575,
      "Ġlicen": 2576,
      "Ġprotoco": 2577,
      "Ġeventuais": 2578,
      "lista": 2579,
      "Ġdespesa": 2580,
      "Ġmanti": 2581,
      "Ġcontrole": 2582,
      "Ġaero": 2583,
      "Ġhori": 2584,
      "Ġbi": 2585,
      "velo": 2586,
      "Ġfuturas": 2587,
      "Ġalexan": 2588,
      "lÃ¢ndia": 2589,
      "Ġaudi": 2590,
      "Ġros": 2591,
      "Ġlocalizado": 2592,
      "Ġepp": 2593,
      "tificaÃ§Ã£o": 2594,
      "Ġhen": 2595,
      "Ġpartes": 2596,
      "Ġgrupo": 2597,
      "Ġaca": 2598,
      "Ġ100": 2599,
      "ing": 2600,
      "entrega": 2601,
      "dem": 2602,
      "Ġasso": 2603,
      "quiri": 2604,
      "Ġhomologado": 2605,
      "Ġconsultada": 2606,
      "Ġempreitada": 2607,
      "lic": 2608,
      "aste": 2609,
      "Ġdani": 2610,
      "respon": 2611,
      "anÃ§as": 2612,
      "Ġcara": 2613,
      "Ġdigital": 2614,
      "lantaÃ§Ã£o": 2615,
      "Ġneto": 2616,
      "Ġpromo": 2617,
      "Ġlicitacoes": 2618,
      "Ġmaran": 2619,
      "Ġenvelo": 2620,
      "sim": 2621,
      "Ġadquiri": 2622,
      "Ġvieira": 2623,
      "ritiba": 2624,
      "ĠconceiÃ§Ã£o": 2625,
      "mu": 2626,
      "riga": 2627,
      "Ġinc": 2628,
      "Ġber": 2629,
      "usta": 2630,
      "ĠatenÃ§Ã£o": 2631,
      "ĠmilhÃ£o": 2632,
      "portes": 2633,
      "Ġcorrespon": 2634,
      "ĠluÃŃs": 2635,
      "ĠimplantaÃ§Ã£o": 2636,
      "ĠsuperintendÃªncia": 2637,
      "Ġhenri": 2638,
      "Ġis": 2639,
      "grafe": 2640,
      "Ġequipamento": 2641,
      "ĠÃºnico": 2642,
      "ĠgonÃ§alves": 2643,
      "fra": 2644,
      "Ġpinh": 2645,
      "ron": 2646,
      "Ġces": 2647,
      "Ġbene": 2648,
      "Ġgros": 2649,
      "Ġmaior": 2650,
      "Ġabaste": 2651,
      "ĠelaboraÃ§Ã£o": 2652,
      "resentaÃ§Ã£o": 2653,
      "Ġ***": 2654,
      "Ġdesigna": 2655,
      "ÃŃba": 2656,
      "sem": 2657,
      "Ġ154": 2658,
      "Ġ69": 2659,
      "Ġmarcos": 2660,
      "Ġadjudico": 2661,
      "Ġpagamento": 2662,
      "Ġeventos": 2663,
      "Ġassocia": 2664,
      "Ġamb": 2665,
      "Ġcol": 2666,
      "mpri": 2667,
      "Ġarqui": 2668,
      "Ġeduardo": 2669,
      "100": 2670,
      "nal": 2671,
      "Ġcode": 2672,
      "Ġch": 2673,
      "Ġassim": 2674,
      "Ġsuporte": 2675,
      "Ġferra": 2676,
      "vasf": 2677,
      "Ġreferido": 2678,
      "bbmnet": 2679,
      "Ġmul": 2680,
      "rim": 2681,
      "Ġrodrigo": 2682,
      "Ġfernando": 2683,
      "Ġgoverna": 2684,
      "ĠocorrerÃ¡": 2685,
      "Ġassessoria": 2686,
      "jus": 2687,
      "Ġq": 2688,
      "cidade": 2689,
      "ones": 2690,
      "peraÃ§Ã£o": 2691,
      "ĠcearÃ¡": 2692,
      "Ġnascimento": 2693,
      "ĠaraÃº": 2694,
      "trezentos": 2695,
      "Ġmerca": 2696,
      "ag": 2697,
      "ft": 2698,
      "gio": 2699,
      "Ġdecla": 2700,
      "Ġmel": 2701,
      "Ġlan": 2702,
      "Ġemenda": 2703,
      "Ġ7004": 2704,
      "tÃ³ria": 2705,
      "Ġalterado": 2706,
      "Ġparticipa": 2707,
      "Ġplano": 2708,
      "Ġsubstitu": 2709,
      "ĠaraÃºjo": 2710,
      "centes": 2711,
      "line": 2712,
      "mada": 2713,
      "Ġhor": 2714,
      "Ġporta": 2715,
      "mentar": 2716,
      "denadora": 2717,
      "Ġindust": 2718,
      "rena": 2719,
      "nior": 2720,
      "Ġmara": 2721,
      "Ġcpf": 2722,
      "conÃ´": 2723,
      "Ġmili": 2724,
      "ĠveÃŃculo": 2725,
      "Ġrodovia": 2726,
      "Ġcapa": 2727,
      "veni": 2728,
      "zonte": 2729,
      "Ġnorma": 2730,
      "ĠprorrogaÃ§Ã£o": 2731,
      "ĠinformÃ¡tica": 2732,
      "ĠmÃŃni": 2733,
      "Ġcontar": 2734,
      "Ġmarques": 2735,
      "Ġhenrique": 2736,
      "Ġabastecimento": 2737,
      "Ġindustria": 2738,
      "ĠepÃŃ": 2739,
      "Ġpatri": 2740,
      "minaÃ§Ã£o": 2741,
      "log": 2742,
      "Ġ74": 2743,
      "bela": 2744,
      "ĠdescriÃ§Ã£o": 2745,
      "Ġcontato": 2746,
      "ĠepÃŃgrafe": 2747,
      "Ġdef": 2748,
      "ĠeconÃ´": 2749,
      "Ġfms": 2750,
      "Ġcab": 2751,
      "Ġimpres": 2752,
      "Ġaparecida": 2753,
      "ĠjÃºnior": 2754,
      "Ġenvelopes": 2755,
      "dÃ£o": 2756,
      "epp": 2757,
      "Ġ&": 2758,
      "Ġdr": 2759,
      "dida": 2760,
      "Ġpau": 2761,
      "Ġ78": 2762,
      "Ġ79": 2763,
      "Ġteix": 2764,
      "Ġconstrutora": 2765,
      "Ġalien": 2766,
      "ĠfundaÃ§Ã£o": 2767,
      "Ġobjetivo": 2768,
      "Ġcristina": 2769,
      "Ġrecife": 2770,
      "reas": 2771,
      "Ġpregao": 2772,
      "Ġdar": 2773,
      "ĠcÃ¢": 2774,
      "anha": 2775,
      "doso": 2776,
      "Ġ87": 2777,
      "158": 2778,
      "Ġpequ": 2779,
      "ustavo": 2780,
      "ĠalienaÃ§Ã£o": 2781,
      "010": 2782,
      "901": 2783,
      "lidades": 2784,
      "quaÃ§Ã£o": 2785,
      "Ġserra": 2786,
      "Ġfarma": 2787,
      "novobbmnet": 2788,
      "ĠÃ¢mbi": 2789,
      "ĠÃ¢mbito": 2790,
      "xa": 2791,
      "Ġbens": 2792,
      "Ġjudi": 2793,
      "para": 2794,
      "Ġmobili": 2795,
      "Ġconser": 2796,
      "Ġ1530": 2797,
      "Ġ73": 2798,
      "Ġlivros": 2799,
      "ĠbÃ¡sico": 2800,
      "Ġsituado": 2801,
      "Ġvirtu": 2802,
      "Ġparcelada": 2803,
      "oito": 2804,
      "Ġef": 2805,
      "Ġaf": 2806,
      "Ġprev": 2807,
      "Ġhu": 2808,
      "Ġconf": 2809,
      "Ġestu": 2810,
      "Ġmato": 2811,
      "Ġener": 2812,
      "fici": 2813,
      "Ġalto": 2814,
      "Ġbrasileiro": 2815,
      "faz": 2816,
      "Ġaplic": 2817,
      "Ġsenhor": 2818,
      "Ġpna": 2819,
      "Ġcap": 2820,
      "Ġaberta": 2821,
      "Ġparla": 2822,
      "154": 2823,
      "ĠdisposiÃ§Ãµes": 2824,
      "Ġvigente": 2825,
      "Ġdistrib": 2826,
      "Ġhorizonte": 2827,
      "it": 2828,
      "reg": 2829,
      "Ġvar": 2830,
      "Ġbnc": 2831,
      "Ġesporte": 2832,
      "Ġenvio": 2833,
      "Ġparte": 2834,
      "Ġfeli": 2835,
      "Ġcontratar": 2836,
      "Ġmesmo": 2837,
      "Ġbom": 2838,
      "Ġcastro": 2839,
      "Ġarmaz": 2840,
      "ĠproteÃ§Ã£o": 2841,
      "Ġmarcelo": 2842,
      "gusto": 2843,
      "Ġconfe": 2844,
      "ele": 2845,
      "ĠdivisÃ£o": 2846,
      "Ġalun": 2847,
      "ĠedifÃŃcio": 2848,
      "Ġfreitas": 2849,
      "ĠpolÃŃ": 2850,
      "ĠnumÃ©ricas": 2851,
      "Ġrepubli": 2852,
      "Ġgustavo": 2853,
      "Ġretirado": 2854,
      "ĠorÃ§amento": 2855,
      "Ġqualquer": 2856,
      "Ġexclusivamente": 2857,
      "Ġapare": 2858,
      "Ġricar": 2859,
      "Ġalexandre": 2860,
      "Ġpet": 2861,
      "rador": 2862,
      "Ġrena": 2863,
      "Ġlimite": 2864,
      "Ġatos": 2865,
      "Ġ1206": 2866,
      "ĠestarÃ£o": 2867,
      "ĠtÃ©cnicas": 2868,
      "Ġdescritivo": 2869,
      "cinco": 2870,
      "ĠampliaÃ§Ã£o": 2871,
      "Ġbelo": 2872,
      "Ġmat": 2873,
      "Ġaugusto": 2874,
      "Ġquantita": 2875,
      "ĠinstruÃ§Ã£o": 2876,
      "Ġpodem": 2877,
      "ĠprÃ³p": 2878,
      "Ġpertinente": 2879,
      "tista": 2880,
      "Ġala": 2881,
      "diploma": 2882,
      "Ġdados": 2883,
      "Ġpaci": 2884,
      "Ġgui": 2885,
      "Ġ99": 2886,
      "303": 2887,
      "fim": 2888,
      "Ġ58": 2889,
      "ĠpÃºblicos": 2890,
      "Ġ700": 2891,
      "Ġperten": 2892,
      "Ġdurante": 2893,
      "Ġdevida": 2894,
      "bÃ¡": 2895,
      "cnpj": 2896,
      "Ġnu": 2897,
      "Ġ004": 2898,
      "Ġboa": 2899,
      "livro": 2900,
      "ĠoperaÃ§Ã£o": 2901,
      "Ġquinze": 2902,
      "Ġmantida": 2903,
      "Ġteixeira": 2904,
      "Ġalunos": 2905,
      "Ġricardo": 2906,
      "fms": 2907,
      "Ġreuni": 2908,
      "doras": 2909,
      "Ġlicitar": 2910,
      "Ġ1559": 2911,
      "licitar": 2912,
      "Ġexecutivo": 2913,
      "Ġadjudicar": 2914,
      "tÃ¡rios": 2915,
      "2019": 2916,
      "Ġampla": 2917,
      "ĠconvocatÃ³rio": 2918,
      "ner": 2919,
      "Ġdeter": 2920,
      "gar": 2921,
      "ĠmunicÃŃpios": 2922,
      "Ġ59": 2923,
      "Ġeduca": 2924,
      "Ġsupracitado": 2925,
      "ĠresoluÃ§Ã£o": 2926,
      "Ġcadastra": 2927,
      "ĠasfÃ¡ltica": 2928,
      "8000": 2929,
      "im": 2930,
      "su": 2931,
      "caixa": 2932,
      "digital": 2933,
      "Ġbas": 2934,
      "Ġgar": 2935,
      "tÃ³rios": 2936,
      "Ġtabela": 2937,
      "****": 2938,
      "vale": 2939,
      "Ġpermanentes": 2940,
      "lhos": 2941,
      "Ġprevista": 2942,
      "Ġfloria": 2943,
      "Ġfracas": 2944,
      "Ġadiamento": 2945,
      "Ġ700431": 2946,
      "Ã³rios": 2947,
      "Ġcuritiba": 2948,
      "Ġluis": 2949,
      "Ġadjudicado": 2950,
      "dir": 2951,
      "Ġmont": 2952,
      "Ġcadastro": 2953,
      "Ġcombust": 2954,
      "800001": 2955,
      "pÃ¡": 2956,
      "Ġeli": 2957,
      "rono": 2958,
      "Ġeleito": 2959,
      "Ġsim": 2960,
      "mirim": 2961,
      "Ġbarros": 2962,
      "ĠclÃ¡": 2963,
      "Ġceleb": 2964,
      "Ġpesquis": 2965,
      "Ġmemor": 2966,
      "Ġenergia": 2967,
      "st": 2968,
      "rant": 2969,
      "Ġbal": 2970,
      "Ġava": 2971,
      "onais": 2972,
      "Ġcompro": 2973,
      "Ġbatista": 2974,
      "Ġcumpri": 2975,
      "governa": 2976,
      "ĠconvocaÃ§Ã£o": 2977,
      "ĠlaboratÃ³rio": 2978,
      "equi": 2979,
      "gro": 2980,
      "Ġsina": 2981,
      "ntil": 2982,
      "Ġnome": 2983,
      "lizadas": 2984,
      "ĠapresentaÃ§Ã£o": 2985,
      "Ġtelefones": 2986,
      "geral": 2987,
      "Ġturis": 2988,
      "etivo": 2989,
      "ĠmaranhÃ£o": 2990,
      "Ġgrosso": 2991,
      "400": 2992,
      "uiÃ§Ã£o": 2993,
      "Ġest": 2994,
      "Ġmani": 2995,
      "ĠinformaÃ§Ã£o": 2996,
      "Ġimpe": 2997,
      "Ġaragua": 2998,
      "999999": 2999,
      "Ġgerenciamento": 3000,
      "ĠconservaÃ§Ã£o": 3001,
      "Ġdevidamente": 3002,
      "2006": 3003,
      "ivo": 3004,
      "muni": 3005,
      "mia": 3006,
      "rgi": 3007,
      "Ġdan": 3008,
      "Ġ010": 3009,
      "ĠgÃ¡s": 3010,
      "mino": 3011,
      "minha": 3012,
      "Ġconstitu": 3013,
      "Ġ62": 3014,
      "Ġcardoso": 3015,
      "ĠcomunicaÃ§Ã£o": 3016,
      "rÃŃco": 3017,
      "Ġbrasileira": 3018,
      "ĠacessÃ³rios": 3019,
      "ĠmÃ©dicos": 3020,
      "Ġmagal": 3021,
      "ĠdivulgaÃ§Ã£o": 3022,
      "Ġlagoa": 3023,
      "Ġnormativa": 3024,
      "zinha": 3025,
      "Ġpetro": 3026,
      "inal": 3027,
      "Ġrequis": 3028,
      "nea": 3029,
      "ĠagrÃŃco": 3030,
      "Ãªs": 3031,
      "Ġroberto": 3032,
      "Ġcomprasnet": 3033,
      "Ġfirma": 3034,
      "Ġinscrito": 3035,
      "Ġsuprir": 3036,
      "brapa": 3037,
      "Ġencerramento": 3038,
      "ronel": 3039,
      "nas": 3040,
      "uro": 3041,
      "Ġgal": 3042,
      "Ġcapi": 3043,
      "ĠmÃ¡quinas": 3044,
      "utica": 3045,
      "lificaÃ§Ã£o": 3046,
      "didos": 3047,
      "Ġestrutura": 3048,
      "Ġasa": 3049,
      "Ġtota": 3050,
      "Ġsocie": 3051,
      "Ġlog": 3052,
      "Ġ80": 3053,
      "ĠciÃªncia": 3054,
      "Ġ235": 3055,
      "Ġraz": 3056,
      "Ġautoridade": 3057,
      "ĠimÃ³vel": 3058,
      "Ġfracassa": 3059,
      "has": 3060,
      "ph": 3061,
      "Ġ2022": 3062,
      "Ġdep": 3063,
      "Ġdedi": 3064,
      "Ġescri": 3065,
      "Ġmari": 3066,
      "nar": 3067,
      "Ġenca": 3068,
      "Ġrafa": 3069,
      "ĠfinanÃ§as": 3070,
      "prefei": 3071,
      "Ġdefesa": 3072,
      "Ġturismo": 3073,
      "Ġsociedade": 3074,
      "ĠdedicaÃ§Ã£o": 3075,
      "ico": 3076,
      "Ġpl": 3077,
      "Ġsesa": 3078,
      "Ġ101": 3079,
      "Ġprevale": 3080,
      "Ġ200": 3081,
      "Ġinclus": 3082,
      "ciano": 3083,
      "gado": 3084,
      "Ġalta": 3085,
      "Ġ66": 3086,
      "Ġ88": 3087,
      "guel": 3088,
      "Ġassis": 3089,
      "Ġ006": 3090,
      "Ġimpor": 3091,
      "pregao": 3092,
      "Ġmedicina": 3093,
      "Ġprimeiro": 3094,
      "Ġparlamentar": 3095,
      "governamentais": 3096,
      "bio": 3097,
      "pres": 3098,
      "Ġnesta": 3099,
      "ulo": 3100,
      "fico": 3101,
      "Ġnecessidade": 3102,
      "Ġvenda": 3103,
      "Ġlucas": 3104,
      "pregÃ£o": 3105,
      "ĠaplicaÃ§Ã£o": 3106,
      "ĠdeverÃ¡": 3107,
      "ĠfÃŃsico": 3108,
      "Ġcorrespondente": 3109,
      "Ġgovernador": 3110,
      "Ġpequeno": 3111,
      "app": 3112,
      "ica": 3113,
      "Ġcli": 3114,
      "Ġfina": 3115,
      "Ġtce": 3116,
      "ilo": 3117,
      "cionamento": 3118,
      "Ġmarca": 3119,
      "ĠmarÃ§o": 3120,
      "mental": 3121,
      "Ġadicionais": 3122,
      "Ġarau": 3123,
      "ĠprÃ©dio": 3124,
      "cpl": 3125,
      "Ġpacientes": 3126,
      "Ġeleitoral": 3127,
      "Ġmemorial": 3128,
      "Ġmonta": 3129,
      "Ġnota": 3130,
      "ticas": 3131,
      "posiÃ§Ã£o": 3132,
      "vidas": 3133,
      "Ġdesco": 3134,
      "quim": 3135,
      "udio": 3136,
      "mbu": 3137,
      "Ġluz": 3138,
      "Ġreitor": 3139,
      "fazendo": 3140,
      "110": 3141,
      "501": 3142,
      "her": 3143,
      "Ġsistemas": 3144,
      "020": 3145,
      "Ġvas": 3146,
      "ular": 3147,
      "Ġrs": 3148,
      "Ġpoli": 3149,
      "152": 3150,
      "Ġmana": 3151,
      "Ġjuli": 3152,
      "Ġsenhora": 3153,
      "Ġlaborator": 3154,
      "tan": 3155,
      "rech": 3156,
      "Ġ109": 3157,
      "queira": 3158,
      "Ġlicitante": 3159,
      "Ġinfa": 3160,
      "Ġ008": 3161,
      "Ġprocedimentos": 3162,
      "Ġinicia": 3163,
      "quatrocentos": 3164,
      "ĠandrÃ©": 3165,
      "Ġplanilha": 3166,
      "Ġ***.": 3167,
      "nde": 3168,
      "Ġcoman": 3169,
      "Ġdom": 3170,
      "delo": 3171,
      "ÃŃn": 3172,
      "andro": 3173,
      "Ġmaca": 3174,
      "comprasgovernamentais": 3175,
      "Ġmotor": 3176,
      "Ġ68": 3177,
      "Ġbarra": 3178,
      "Ġpaula": 3179,
      "Ġobservado": 3180,
      "ĠclassificaÃ§Ã£o": 3181,
      "ĠeconÃ´mica": 3182,
      "lino": 3183,
      "Ġif": 3184,
      "Ġvel": 3185,
      "Ġemer": 3186,
      "Ġdescar": 3187,
      "ĠconsÃ³": 3188,
      "bara": 3189,
      "Ġmendes": 3190,
      "ĠformaÃ§Ã£o": 3191,
      "Ġescolas": 3192,
      "ĠelÃ©trica": 3193,
      "Ġmilitar": 3194,
      "Ġimpedimento": 3195,
      "rechal": 3196,
      "bar": 3197,
      "nÂº": 3198,
      "veira": 3199,
      "Ġ2025": 3200,
      "rap": 3201,
      "teg": 3202,
      "talha": 3203,
      "Ġsel": 3204,
      "anÃ§a": 3205,
      "Ġobjetiva": 3206,
      "leta": 3207,
      "Ġruas": 3208,
      "bera": 3209,
      "Ġresponsa": 3210,
      "Ġidenti": 3211,
      "Ġrafael": 3212,
      "rr": 3213,
      "Ġcoronel": 3214,
      "Ġbon": 3215,
      "Ġbio": 3216,
      "Ġcontratual": 3217,
      "Ġrp": 3218,
      "Ġ902": 3219,
      "Ġparque": 3220,
      "0005": 3221,
      "reios": 3222,
      "Ġtransportes": 3223,
      "Ġgabri": 3224,
      "ĠadequaÃ§Ã£o": 3225,
      "Ġexames": 3226,
      "Ġmicroemp": 3227,
      "ĠconsÃ³rcio": 3228,
      "005": 3229,
      "Ġseja": 3230,
      "Ġrj": 3231,
      "Ġ95": 3232,
      "Ġcompete": 3233,
      "ĠÃ¡reas": 3234,
      "Ġprofess": 3235,
      "ĠimÃ³veis": 3236,
      "Ġtotalizando": 3237,
      "unto": 3238,
      "Ġcita": 3239,
      "rema": 3240,
      "007": 3241,
      "Ġofer": 3242,
      "Ġquando": 3243,
      "Ġmarechal": 3244,
      "minado": 3245,
      "Ġmoni": 3246,
      "Ġteor": 3247,
      "gueira": 3248,
      "Ġinterna": 3249,
      "ĠinscriÃ§Ã£o": 3250,
      "Ġconstante": 3251,
      "cerÃ¡": 3252,
      "Ġindivi": 3253,
      "Ġsindica": 3254,
      "Ġefet": 3255,
      "Ġaraujo": 3256,
      "dina": 3257,
      "sos": 3258,
      "Ġprocu": 3259,
      "istos": 3260,
      "Ġades": 3261,
      "ĠterÃ¡": 3262,
      "Ġ70": 3263,
      "Ġ76": 3264,
      "Ġramal": 3265,
      "ĠconstruÃ§Ãµes": 3266,
      "Ġimpu": 3267,
      "Ġminu": 3268,
      "deiros": 3269,
      "Ġmantene": 3270,
      "ĠÃ³rgÃ£os": 3271,
      "Ġdiretamente": 3272,
      "Ġaparelhos": 3273,
      "cÃ§Ã£o": 3274,
      "din": 3275,
      "Ġer": 3276,
      "023": 3277,
      "den": 3278,
      "Ġcun": 3279,
      "ĠfÃ¡": 3280,
      "Ġvanta": 3281,
      "Ġborg": 3282,
      "Ġbrito": 3283,
      "ranga": 3284,
      "Ġ61": 3285,
      "Ġnossa": 3286,
      "Ġestrada": 3287,
      "ĠmÃ³veis": 3288,
      "Ġprevistos": 3289,
      "Ġencaminha": 3290,
      "Ġprofessor": 3291,
      "Ġmantenedora": 3292,
      "Ġvantaj": 3293,
      "pel": 3294,
      "Ġ202": 3295,
      "Ġsest": 3296,
      "Ġvan": 3297,
      "Ġbre": 3298,
      "Ġmachado": 3299,
      "uno": 3300,
      "ĠvitÃ³ria": 3301,
      "Ġ007": 3302,
      "Ġlazer": 3303,
      "Ġelementos": 3304,
      "plag": 3305,
      "Ġcontinuados": 3306,
      "ĠdistribuiÃ§Ã£o": 3307,
      "acesso": 3308,
      "can": 3309,
      "ĠdotaÃ§Ã£o": 3310,
      "Ġreis": 3311,
      "Ġbor": 3312,
      "Ġgil": 3313,
      "Ġsaude": 3314,
      "Ġmedeiros": 3315,
      "Ġ005": 3316,
      "ĠfundamentaÃ§Ã£o": 3317,
      "Ġtratamento": 3318,
      "Ġacomp": 3319,
      "Ġfornecedor": 3320,
      "Ġimpugna": 3321,
      "Ġborges": 3322,
      "aquim": 3323,
      "gral": 3324,
      "vendo": 3325,
      "Ġefei": 3326,
      "rentes": 3327,
      "ÃŃli": 3328,
      "Ġ96": 3329,
      "ĠsoluÃ§Ã£o": 3330,
      "sete": 3331,
      "Ġrealizadas": 3332,
      "Ġperfazendo": 3333,
      "Ġneves": 3334,
      "ĠanulaÃ§Ã£o": 3335,
      "ĠÃ¡s": 3336,
      "ĠtÃ©r": 3337,
      "servi": 3338,
      "Ġdescritas": 3339,
      "Ġsuprimentos": 3340,
      "ftw": 3341,
      "renagem": 3342,
      "030": 3343,
      "id": 3344,
      "if": 3345,
      "Ġdrenagem": 3346,
      "reta": 3347,
      "ridade": 3348,
      "Ġmoraes": 3349,
      "Ġordem": 3350,
      "Ġfundos": 3351,
      "Ġreser": 3352,
      "Ġvencedoras": 3353,
      "Ġpinto": 3354,
      "Ã´nia": 3355,
      "Ġhid": 3356,
      "Ġurbana": 3357,
      "ii": 3358,
      "mis": 3359,
      "sen": 3360,
      "Ġsc": 3361,
      "Ã©r": 3362,
      "site": 3363,
      "Ġsolu": 3364,
      "Ġ77": 3365,
      "orge": 3366,
      "Ġcondicionado": 3367,
      "Ġpodendo": 3368,
      "Ġprotocolo": 3369,
      "Ġpinheiro": 3370,
      "ĠrepublicaÃ§Ã£o": 3371,
      "Ġcunha": 3372,
      "Ġvantajosa": 3373,
      "ex": 3374,
      "ferÃªncia": 3375,
      "ly": 3376,
      "Ġ011": 3377,
      "Ġobriga": 3378,
      "Ġcancel": 3379,
      "sito": 3380,
      "Ġdie": 3381,
      "Ġ105": 3382,
      "Ġleite": 3383,
      "ĠalÃŃ": 3384,
      "menor": 3385,
      "ĠjurÃŃdicas": 3386,
      "Ġautomo": 3387,
      "$:": 3388,
      "les": 3389,
      "metro": 3390,
      "sistema": 3391,
      "Ġpen": 3392,
      "009": 3393,
      "Ġpreto": 3394,
      "Ġlhe": 3395,
      "ulas": 3396,
      "Ġ94": 3397,
      "Ġ147": 3398,
      "Ġservidores": 3399,
      "Ġrealizados": 3400,
      "ĠagÃªncia": 3401,
      "Ġfacul": 3402,
      "rÃ©s": 3403,
      "Ġgarant": 3404,
      "xxx": 3405,
      "Ġrepresentado": 3406,
      "Ġprofissionais": 3407,
      "Ġadquirido": 3408,
      "ĠpetrÃ³": 3409,
      "Ġcompetente": 3410,
      "Ġacompanha": 3411,
      "Ġnr": 3412,
      "informa": 3413,
      "dendo": 3414,
      "Ġjor": 3415,
      "Ġcaval": 3416,
      "Ġ92": 3417,
      "Ġ500": 3418,
      "Ġpessoal": 3419,
      "quarenta": 3420,
      "Ġxa": 3421,
      "Ġhigiene": 3422,
      "Ġ70043": 3423,
      "Ġado": 3424,
      "Ġacre": 3425,
      "esel": 3426,
      "Ġcus": 3427,
      "Ġ211": 3428,
      "ĠparaÃŃba": 3429,
      "Ġgas": 3430,
      "Ġ91": 3431,
      "Ġ153": 3432,
      "Ġ72": 3433,
      "Ġintegral": 3434,
      "Ġcompra": 3435,
      "Ġmano": 3436,
      "Ġapresentar": 3437,
      "Ġjunho": 3438,
      "Ġdaniel": 3439,
      "Ġpesquisa": 3440,
      "Ġmanif": 3441,
      "prefeitura": 3442,
      "Ġinfantil": 3443,
      "ĠadesÃ£o": 3444,
      "cr": 3445,
      "met": 3446,
      "cido": 3447,
      "Ġcozinha": 3448,
      "Ġadri": 3449,
      "Ġexter": 3450,
      "0006": 3451,
      "Ġ85": 3452,
      "cionada": 3453,
      "Â°.": 3454,
      "ĠrecuperaÃ§Ã£o": 3455,
      "ville": 3456,
      "Ġprofissional": 3457,
      "Ġfirmado": 3458,
      "eu": 3459,
      "uri": 3460,
      "Ġprin": 3461,
      "redo": 3462,
      "Ġms": 3463,
      "tio": 3464,
      "Ġpropon": 3465,
      "105": 3466,
      "Ġ1531": 3467,
      "Ġ2544": 3468,
      "nova": 3469,
      "Ġinteressado": 3470,
      "istente": 3471,
      "ĠinscriÃ§Ãµes": 3472,
      "ĠclÃŃni": 3473,
      "Ġsolicitado": 3474,
      "Ġvirtual": 3475,
      "ĠassociaÃ§Ã£o": 3476,
      "ĠlogÃŃs": 3477,
      "jos": 3478,
      "tros": 3479,
      "ĠaÃ§Ãµes": 3480,
      "Ġ113": 3481,
      "cara": 3482,
      "camp": 3483,
      "Ġsedia": 3484,
      "Ġconcess": 3485,
      "essa": 3486,
      "Ġindica": 3487,
      "Ġalberto": 3488,
      "Ġvias": 3489,
      "pira": 3490,
      "Ġalimentos": 3491,
      "Ġextratos": 3492,
      "Ġapresentado": 3493,
      "ĠbelÃ©m": 3494,
      "Ġquantitativos": 3495,
      "Ġcumprimento": 3496,
      "ĠalÃŃnea": 3497,
      "600": 3498,
      "905": 3499,
      "gran": 3500,
      "mba": 3501,
      "Ġdeno": 3502,
      "infra": 3503,
      "Ġconcreto": 3504,
      "Ġespor": 3505,
      "Ġjorge": 3506,
      "Ġembrapa": 3507,
      "Ġ1602": 3508,
      "Ġresta": 3509,
      "lanc": 3510,
      "Ġluc": 3511,
      "Ġculturais": 3512,
      "ĠrelatÃ³rio": 3513,
      "Ġprivado": 3514,
      "ĠlicenÃ§a": 3515,
      "ĠsinalizaÃ§Ã£o": 3516,
      "beraba": 3517,
      "300": 3518,
      "80001": 3519,
      "aten": 3520,
      "uraÃ§Ã£o": 3521,
      "Ġdent": 3522,
      "ĠsÃ³": 3523,
      "oso": 3524,
      "inville": 3525,
      "Ġnatal": 3526,
      "cipal": 3527,
      "Ġcamin": 3528,
      "pora": 3529,
      "porto": 3530,
      "Ġbara": 3531,
      "Ġseguir": 3532,
      "Ġverde": 3533,
      "seiscentos": 3534,
      "Ġmonteiro": 3535,
      "tis": 3536,
      "concel": 3537,
      "028": 3538,
      "orte": 3539,
      "Ġcoo": 3540,
      "Ġcoleta": 3541,
      "teira": 3542,
      "ental": 3543,
      "mina": 3544,
      "Ġvalores": 3545,
      "vera": 3546,
      "Ġ135": 3547,
      "125": 3548,
      "Ġ009": 3549,
      "ĠcontÃŃn": 3550,
      "renda": 3551,
      "inhos": 3552,
      "Ġcandida": 3553,
      "ĠdisponibilizaÃ§Ã£o": 3554,
      "ĠodontolÃ³gicos": 3555,
      "Ġfinanceiro": 3556,
      "Ġmercador": 3557,
      "Ġemail": 3558,
      "ntina": 3559,
      "0010": 3560,
      "don": 3561,
      "Ġtodo": 3562,
      "Ġsoftw": 3563,
      "Ġ82": 3564,
      "040": 3565,
      "Ġramo": 3566,
      "Ġjoaquim": 3567,
      "Ġtrata": 3568,
      "Ġ90006": 3569,
      "reendedor": 3570,
      "Ġcristi": 3571,
      "ĠorganizaÃ§Ã£o": 3572,
      "semsa": 3573,
      "bs": 3574,
      "ban": 3575,
      "gn": 3576,
      "ges": 3577,
      "ok": 3578,
      "Ġdetalha": 3579,
      "029": 3580,
      "Ġoeste": 3581,
      "dada": 3582,
      "dios": 3583,
      "resa": 3584,
      "014": 3585,
      "019": 3586,
      "Ġ97": 3587,
      "Ġdiesel": 3588,
      "hot": 3589,
      "Ġ86": 3590,
      "Ġagu": 3591,
      "Ġespecializados": 3592,
      "Ġcrea": 3593,
      "Ġinterno": 3594,
      "prego": 3595,
      "ĠbÃ¡sicas": 3596,
      "Ġconsideradas": 3597,
      "Ġfiscal": 3598,
      "Ġrespectivos": 3599,
      "Ġdesconto": 3600,
      "Ġvasconcel": 3601,
      "Ġmanaus": 3602,
      "Ġreserva": 3603,
      "hÃ£es": 3604,
      "ilia": 3605,
      "sÃ¡vel": 3606,
      "Ġcolo": 3607,
      "Ġ110": 3608,
      "Ġilu": 3609,
      "Ġcontas": 3610,
      "Ġcomum": 3611,
      "Ġempreen": 3612,
      "Ġsani": 3613,
      "Ġterri": 3614,
      "Ġ83": 3615,
      "Ġfam": 3616,
      "mbo": 3617,
      "Ġvigil": 3618,
      "Ġwil": 3619,
      "Ġartigos": 3620,
      "ĠgoiÃ¢nia": 3621,
      "ĠjurÃŃdico": 3622,
      "ĠmagalhÃ£es": 3623,
      "ĠrazÃ£o": 3624,
      "Ġmanoel": 3625,
      "hotmail": 3626,
      "Ġlicitantes": 3627,
      "Ġcateg": 3628,
      "Ġmoura": 3629,
      "Ġmiguel": 3630,
      "reendendo": 3631,
      "Ġcodevasf": 3632,
      "Ġparticipantes": 3633,
      "Ġvargas": 3634,
      "Ġvasconcelos": 3635,
      "dÃªncias": 3636,
      "itos": 3637,
      "Ġcia": 3638,
      "Ġeta": 3639,
      "Ġses": 3640,
      "008": 3641,
      "Ġcoelho": 3642,
      "tecno": 3643,
      "dato": 3644,
      "Ġnovos": 3645,
      "012": 3646,
      "vados": 3647,
      "Ġ1601": 3648,
      "Ġrecebidas": 3649,
      "Ġ90012": 3650,
      "Ġutilizados": 3651,
      "Ġprimeira": 3652,
      "Ġcaldas": 3653,
      "php": 3654,
      "Ġbonfim": 3655,
      "tecnologia": 3656,
      "sm": 3657,
      "Âł": 3658,
      "Ġmet": 3659,
      "Ġmulta": 3660,
      "mpa": 3661,
      "Ġfre": 3662,
      "enÃ§Ã£o": 3663,
      "106": 3664,
      "Ġtomada": 3665,
      "0008": 3666,
      "Ġ257": 3667,
      "Ġcidades": 3668,
      "Ġcompan": 3669,
      "Ġusu": 3670,
      "xias": 3671,
      "lhas": 3672,
      "Ġexclusivo": 3673,
      "Ġparticipar": 3674,
      "Ġdisponibilidade": 3675,
      "ĠfÃŃsica": 3676,
      "hospital": 3677,
      "ĠsequÃªncia": 3678,
      "Ġbernar": 3679,
      "Ġfinalidade": 3680,
      "ĠiluminaÃ§Ã£o": 3681,
      "399": 3682,
      "dÃ¡": 3683,
      "int": 3684,
      "sess": 3685,
      "tr": 3686,
      "Ġpei": 3687,
      "Ġpne": 3688,
      "rapia": 3689,
      "reu": 3690,
      "inÃ³polis": 3691,
      "dito": 3692,
      "Ġcrono": 3693,
      "enho": 3694,
      "Ġira": 3695,
      "ciamento": 3696,
      "Ġespa": 3697,
      "Ġestatu": 3698,
      "Ġordenadora": 3699,
      "eridas": 3700,
      "publica": 3701,
      "Ġamaz": 3702,
      "Ġreferida": 3703,
      "Ġrodovi": 3704,
      "ĠresponsÃ¡vel": 3705,
      "consulta": 3706,
      "basti": 3707,
      "ĠmobiliÃ¡rio": 3708,
      "cÃª": 3709,
      "ps": 3710,
      "tto": 3711,
      "ĠdÃº": 3712,
      "deo": 3713,
      "Ġproveni": 3714,
      "Ġino": 3715,
      "Ġcana": 3716,
      "Ġcacho": 3717,
      "Ġ903": 3718,
      "0003": 3719,
      "Ġpresta": 3720,
      "Ġentidade": 3721,
      "cionados": 3722,
      "licitaÃ§Ãµes": 3723,
      "Ġcir": 3724,
      "Ġcompos": 3725,
      "mico": 3726,
      "Ġfabri": 3727,
      "Ġfazenda": 3728,
      "Ġorganiza": 3729,
      "Ġatua": 3730,
      "Ġpertencentes": 3731,
      "Ġresponsabilidade": 3732,
      "Ġminutos": 3733,
      "iti": 3734,
      "santa": 3735,
      "uba": 3736,
      "wn": 3737,
      "Ġdeli": 3738,
      "ĠaÃ§Ã£o": 3739,
      "Ġ013": 3740,
      "rÃº": 3741,
      "quel": 3742,
      "til": 3743,
      "Ġvem": 3744,
      "101": 3745,
      "posta": 3746,
      "load": 3747,
      "Ġ108": 3748,
      "Ġdeser": 3749,
      "Ġ2500": 3750,
      "Ġcompreendendo": 3751,
      "Ġfechado": 3752,
      "993": 3753,
      "Ġpublico": 3754,
      "Ġlau": 3755,
      "**,": 3756,
      "Ġmiran": 3757,
      "Ġdestinada": 3758,
      "zerra": 3759,
      "ĠsequÃªncias": 3760,
      "Ġportador": 3761,
      "Ġgabriel": 3762,
      "ĠvigilÃ¢ncia": 3763,
      "520": 3764,
      "bus": 3765,
      "ds": 3766,
      "rm": 3767,
      "uli": 3768,
      "Ġare": 3769,
      "Ġinde": 3770,
      "Ġ90001": 3771,
      "randi": 3772,
      "torial": 3773,
      "Ġhabi": 3774,
      "pmm": 3775,
      "Ġoriun": 3776,
      "Ġidentidade": 3777,
      "Ġpnae": 3778,
      "ĠclÃ¡us": 3779,
      "ĠavaliaÃ§Ã£o": 3780,
      "sessenta": 3781,
      "/;": 3782,
      "sup": 3783,
      "ya": 3784,
      "Ġze": 3785,
      "022": 3786,
      "caju": 3787,
      "ento": 3788,
      "Ġpredi": 3789,
      "Ġrevi": 3790,
      "Ġsebasti": 3791,
      "Ã¡cio": 3792,
      "Ġhe": 3793,
      "Ġconju": 3794,
      "ficial": 3795,
      "Ġvale": 3796,
      "secre": 3797,
      "deste": 3798,
      "Ġquanto": 3799,
      "Ġmencionado": 3800,
      "Ġexecutiva": 3801,
      "Ġseguro": 3802,
      "Ġramos": 3803,
      "750": 3804,
      "Ġseges": 3805,
      "ĠlegislaÃ§Ãµes": 3806,
      "Ġcoordena": 3807,
      "Ġpaulista": 3808,
      "Ġvirtuais": 3809,
      "licitardigital": 3810,
      "Ġindividual": 3811,
      "8001": 3812,
      "che": 3813,
      "nÃ³polis": 3814,
      "Ġmas": 3815,
      "ende": 3816,
      "Ġleste": 3817,
      "Ġbanc": 3818,
      "Ġobter": 3819,
      "Ġ339": 3820,
      "Ġmatos": 3821,
      "Ġ93": 3822,
      "Ġregul": 3823,
      "correios": 3824,
      "Ġfomento": 3825,
      "Ġfur": 3826,
      "Ġkit": 3827,
      "2016": 3828,
      "Ġtreina": 3829,
      "Ġprocessos": 3830,
      "ĠsÃŃtios": 3831,
      "cinquenta": 3832,
      "Ġurbano": 3833,
      "Ġrepresentada": 3834,
      "ĠautorizaÃ§Ã£o": 3835,
      "ĠaplicÃ¡veis": 3836,
      "Ġprocurador": 3837,
      "Ġmercadorias": 3838,
      "Ġempreendimentos": 3839,
      "Ġcompanhia": 3840,
      "wnload": 3841,
      "700": 3842,
      "bre": 3843,
      "Ġssp": 3844,
      "Ġsch": 3845,
      "rÃ¢": 3846,
      "quinhentos": 3847,
      "Ġvil": 3848,
      "esse": 3849,
      "Ġguar": 3850,
      "Ġje": 3851,
      "ĠemissÃ£o": 3852,
      "loes": 3853,
      "Ġcaxias": 3854,
      "fini": 3855,
      "correncia": 3856,
      "Ġ156": 3857,
      "ĠagrÃ¡": 3858,
      "Ġcarteira": 3859,
      "Ġgoia": 3860,
      "Ġcomodato": 3861,
      "Ġcultural": 3862,
      "Ġintegrante": 3863,
      "Ġbruno": 3864,
      "Ġmulti": 3865,
      "Ġrequisitos": 3866,
      "ĠsebastiÃ£o": 3867,
      "dr": 3868,
      "ns": 3869,
      "sas": 3870,
      "Ġ0001": 3871,
      "tacao": 3872,
      "Ġreca": 3873,
      "Ġfon": 3874,
      "Ġful": 3875,
      "quia": 3876,
      "ÃŃda": 3877,
      "Ġ927": 3878,
      "Ġsaber": 3879,
      "seplag": 3880,
      "Ġatendendo": 3881,
      "Ġ84": 3882,
      "Ġ012": 3883,
      "gipe": 3884,
      "zoito": 3885,
      "mentas": 3886,
      "Ġmesma": 3887,
      "Ġlinha": 3888,
      "111111": 3889,
      "ĠhorÃ¡rios": 3890,
      "ĠconfecÃ§Ã£o": 3891,
      "Ġgarcia": 3892,
      "ĠescritÃ³rio": 3893,
      "ĠusuÃ¡rios": 3894,
      "rÃºrgi": 3895,
      "dentes": 3896,
      "mÃ´nio": 3897,
      "ud": 3898,
      "021": 3899,
      "dan": 3900,
      "Ġnogueira": 3901,
      "magem": 3902,
      "Ġfal": 3903,
      "eirÃ£o": 3904,
      "109": 3905,
      "Ã©rios": 3906,
      "ĠgrÃ¡": 3907,
      "jeto": 3908,
      "Ġmatri": 3909,
      "vadas": 3910,
      "Ġsao": 3911,
      "Ġ107": 3912,
      "bira": 3913,
      "ĠcirÃºrgi": 3914,
      "Ġ016": 3915,
      "Ġsilveira": 3916,
      "Ġcarn": 3917,
      "Ġdescrito": 3918,
      "Ġcontados": 3919,
      "lÃ³gica": 3920,
      "Ġprevisto": 3921,
      "Ġrita": 3922,
      "Ġambiental": 3923,
      "Ġfisca": 3924,
      "Ġbezerra": 3925,
      "Ġconsultoria": 3926,
      "Ġjustifica": 3927,
      "Ġconferidas": 3928,
      "ĠcombustÃŃveis": 3929,
      "Ġcancelamento": 3930,
      "Ġsediada": 3931,
      "Ġsoftware": 3932,
      "Ġcronograma": 3933,
      "ĠdÃºvidas": 3934,
      "pas": 3935,
      "pri": 3936,
      "sis": 3937,
      "reto": 3938,
      "inde": 3939,
      "ÃŃdu": 3940,
      "Ġcondu": 3941,
      "107": 3942,
      "Ġ106": 3943,
      "Ġmotivo": 3944,
      "bid": 3945,
      "Ġestados": 3946,
      "rudente": 3947,
      "Ġqualidade": 3948,
      "Ġ1603": 3949,
      "Ġ90002": 3950,
      "Ġ90010": 3951,
      "365": 3952,
      "Ġimple": 3953,
      "Ġjoinville": 3954,
      "Ġescolares": 3955,
      "toramento": 3956,
      "ĠediÃ§Ã£o": 3957,
      "process": 3958,
      "ebserh": 3959,
      "ĠpatrimÃ´nio": 3960,
      "Ġnutri": 3961,
      "Ġaraguaia": 3962,
      "Ġsindicato": 3963,
      "903": 3964,
      "bia": 3965,
      "ctor": 3966,
      "sor": 3967,
      "ses": 3968,
      "reza": 3969,
      "lian": 3970,
      "Ġ102": 3971,
      "Ġdownload": 3972,
      "Ġnovas": 3973,
      "timo": 3974,
      "Ġvei": 3975,
      "015": 3976,
      "Ġsol": 3977,
      "Ġ104": 3978,
      "Ġ125": 3979,
      "Ġmonte": 3980,
      "Ġmodelo": 3981,
      "rÃ¡uli": 3982,
      "Ġ81": 3983,
      "Ġprestados": 3984,
      "Ġ116": 3985,
      "Ġ019": 3986,
      "Ġespeciais": 3987,
      "cerÃ£o": 3988,
      "tarina": 3989,
      "deiro": 3990,
      "deiras": 3991,
      "Ġ90007": 3992,
      "Ġaplica": 3993,
      "urgo": 3994,
      "mÃ¡cia": 3995,
      "Ġguara": 3996,
      "Ġpertinentes": 3997,
      "Ġbraga": 3998,
      "Ġquaisquer": 3999,
      "Ġurbanos": 4000,
      "Ġferramentas": 4001,
      "Ġfelipe": 4002,
      "ĠhidrÃ¡uli": 4003,
      "cruz": 4004,
      "ima": 4005,
      "sena": 4006,
      "zos": 4007,
      "Ġdepen": 4008,
      "ĠaÃ©": 4009,
      "cimo": 4010,
      "rige": 4011,
      "Ġenvia": 4012,
      "Ġ1056": 4013,
      "Ġmorais": 4014,
      "ciona": 4015,
      "Ġpedidos": 4016,
      "Ġleandro": 4017,
      "Ġfuncionamento": 4018,
      "Ġanos": 4019,
      "ĠrescisÃ£o": 4020,
      "chi": 4021,
      "qualificaÃ§Ã£o": 4022,
      "parti": 4023,
      "Ġgestora": 4024,
      "Ġprima": 4025,
      "Ġ90003": 4026,
      "Ġ90005": 4027,
      "ĠribeirÃ£o": 4028,
      "ĠutilizaÃ§Ã£o": 4029,
      "Ġoperacional": 4030,
      "ĠpetrÃ³leo": 4031,
      "ÃŃduos": 4032,
      "ka": 4033,
      "lene": 4034,
      "mlicita": 4035,
      "ys": 4036,
      "Ġdeve": 4037,
      "Ġepi": 4038,
      "nit": 4039,
      "ĠreposiÃ§Ã£o": 4040,
      "Ġfei": 4041,
      "ĠvÃŃ": 4042,
      "eletro": 4043,
      "108": 4044,
      "018": 4045,
      "minas": 4046,
      "Ġrealizando": 4047,
      "ceb": 4048,
      "Ġuber": 4049,
      "curso": 4050,
      "Ġaldir": 4051,
      ")..": 4052,
      "Ġrefrige": 4053,
      "Ġ023": 4054,
      "grafo": 4055,
      "Ġexecutados": 4056,
      "361": 4057,
      "Ġwal": 4058,
      "2018": 4059,
      "linas": 4060,
      "Ġreferidas": 4061,
      "Ġestradas": 4062,
      "Ġeducacional": 4063,
      "Ġpneus": 4064,
      "Ġmiranda": 4065,
      "eda": 4066,
      "ts": 4067,
      "una": 4068,
      "Ġdecorre": 4069,
      "0202": 4070,
      "Ġcobertura": 4071,
      "tel": 4072,
      "Ġrefei": 4073,
      "Ġflo": 4074,
      "Ġblanc": 4075,
      "Ġasse": 4076,
      "derson": 4077,
      "Ã©sticos": 4078,
      "gueiras": 4079,
      "erior": 4080,
      "039": 4081,
      "ĠresÃŃduos": 4082,
      "Ġ195": 4083,
      "970": 4084,
      "tinga": 4085,
      "Ġprevistas": 4086,
      "ĠsanÃ§Ã£o": 4087,
      "Ġbueno": 4088,
      "Ġdesignada": 4089,
      "Ġlaboratoriais": 4090,
      "informacao": 4091,
      "Ġregulamento": 4092,
      "807": 4093,
      "atecnologia": 4094,
      "hi": 4095,
      "je": 4096,
      "Ġdefini": 4097,
      "talizaÃ§Ã£o": 4098,
      "Ġaze": 4099,
      "nil": 4100,
      "deb": 4101,
      "Ġelei": 4102,
      "iar": 4103,
      "Ġesgo": 4104,
      "istro": 4105,
      "gada": 4106,
      "pera": 4107,
      "cedo": 4108,
      "Ġ103": 4109,
      "Ġregistrado": 4110,
      "guas": 4111,
      "Ġrefer": 4112,
      "Ġped": 4113,
      "122": 4114,
      "contrataÃ§Ã£o": 4115,
      "Ġcontendo": 4116,
      "ĠacrÃ©s": 4117,
      "ĠmÃŃnimo": 4118,
      "ĠpolÃŃtica": 4119,
      "Ġcadastramento": 4120,
      "Ġdantas": 4121,
      "presi": 4122,
      "Ġcomando": 4123,
      "ĠsoluÃ§Ãµes": 4124,
      "Ġfaculdade": 4125,
      "ĠacrÃ©scimo": 4126,
      "].": 4127,
      "ati": 4128,
      "hu": 4129,
      "ki": 4130,
      "code": 4131,
      "asp": 4132,
      "Ġcle": 4133,
      "137": 4134,
      "Ġadministrativas": 4135,
      "Ġteres": 4136,
      "mir": 4137,
      "Ġpedido": 4138,
      "Ġprazos": 4139,
      "Ġmarco": 4140,
      "cula": 4141,
      "Ġauxi": 4142,
      "ĠratificaÃ§Ã£o": 4143,
      "462": 4144,
      "ĠmÃ©dica": 4145,
      "marÃ£es": 4146,
      "Ġamaral": 4147,
      "ĠestratÃ©": 4148,
      "Ġfornecedores": 4149,
      "ĠimpressÃ£o": 4150,
      "ĠguimarÃ£es": 4151,
      "ĠagrÃŃcolas": 4152,
      "Ġmonitoramento": 4153,
      "Ġefetua": 4154,
      "atende": 4155,
      "ĠcontÃŃnu": 4156,
      "-**,": 4157,
      "ces": 4158,
      "ml": 4159,
      "ob": 4160,
      "zes": 4161,
      "Ġpis": 4162,
      "Ġocu": 4163,
      "dom": 4164,
      "Ġhel": 4165,
      "Ġsomente": 4166,
      "Ġvicente": 4167,
      "graf": 4168,
      "Ġforneci": 4169,
      "Ġcarmo": 4170,
      "Ġraim": 4171,
      "Ġpint": 4172,
      "pmc": 4173,
      "brasil": 4174,
      "Ġdevido": 4175,
      "Ġvinculado": 4176,
      "ĠfarmacÃª": 4177,
      "ĠflorianÃ³polis": 4178,
      "Ġfulcro": 4179,
      "index": 4180,
      "ĠuberlÃ¢ndia": 4181,
      "ĠreferÃªncias": 4182,
      "presidente": 4183,
      "van": 4184,
      "xig": 4185,
      "rativos": 4186,
      "02024": 4187,
      "Ġmei": 4188,
      "Ġreman": 4189,
      "mane": 4190,
      "ĠcÃ©": 4191,
      "onar": 4192,
      "017": 4193,
      "Ġmaio": 4194,
      "Ġcatarina": 4195,
      "Ġinformatica": 4196,
      "vedo": 4197,
      "Ġ150": 4198,
      "Ġponte": 4199,
      "torze": 4200,
      "Ġrog": 4201,
      "123": 4202,
      "Ġinteiro": 4203,
      "ĠproduÃ§Ã£o": 4204,
      "Ġ90014": 4205,
      "Ġeletronica": 4206,
      "Ġ90004": 4207,
      "ĠÃ³leo": 4208,
      "enove": 4209,
      "ĠleilÃµes": 4210,
      "ĠfarmÃ¡cia": 4211,
      "Ġrenata": 4212,
      "equipa": 4213,
      "ĠfamÃŃlia": 4214,
      "cter": 4215,
      "edade": 4216,
      "pÃ§Ã£o": 4217,
      "sia": 4218,
      "ĠsÃ¡": 4219,
      "Ġ130": 4220,
      "Ġremo": 4221,
      "Ġcria": 4222,
      "tiza": 4223,
      "Ġlicitado": 4224,
      "Ġlicitanet": 4225,
      "Ġ338": 4226,
      "Ġnacionais": 4227,
      "Ġcaro": 4228,
      "mobi": 4229,
      "crea": 4230,
      "ĠalÃ©m": 4231,
      "Ġ014": 4232,
      "reiro": 4233,
      "128": 4234,
      "Ġjoao": 4235,
      "Ġmine": 4236,
      "ĠdivergÃªncia": 4237,
      "Ġ90008": 4238,
      "Ġsenat": 4239,
      "Ġsenador": 4240,
      "Ġefeitos": 4241,
      "ÃŃlios": 4242,
      "ĠlogÃŃstica": 4243,
      "Ġconjunto": 4244,
      "Ġocupa": 4245,
      "Ġsane": 4246,
      "Ġtr": 4247,
      "Ġ389": 4248,
      "ĠcarÃ¡": 4249,
      "0004": 4250,
      "Ġinteressar": 4251,
      "057": 4252,
      "283": 4253,
      "valor": 4254,
      "Ġduque": 4255,
      "Ġtrecho": 4256,
      "leia": 4257,
      "Ġindireta": 4258,
      "ĠincÃªn": 4259,
      "Ġsubstituto": 4260,
      "ĠprÃ³prios": 4261,
      "Ġaguiar": 4262,
      "Ġrecape": 4263,
      "ĠcarÃ¡ter": 4264,
      "lp": 4265,
      "Ġeb": 4266,
      "Ġconte": 4267,
      "nin": 4268,
      "eter": 4269,
      "Ġhs": 4270,
      "Ġveri": 4271,
      "uso": 4272,
      "Ġquem": 4273,
      "Ġ120": 4274,
      "0016": 4275,
      "Ġ118": 4276,
      "Ġ160": 4277,
      "tensÃ£o": 4278,
      "gue": 4279,
      "portu": 4280,
      "ficada": 4281,
      "Ġmarcada": 4282,
      "Ġandre": 4283,
      "035": 4284,
      "Ġcuja": 4285,
      "Ġbarreto": 4286,
      "Ġescolha": 4287,
      "ches": 4288,
      "Ġcerti": 4289,
      "Ġcorrela": 4290,
      "bnccompras": 4291,
      "anema": 4292,
      "Ġesplan": 4293,
      "Ġbranca": 4294,
      "Ġatividade": 4295,
      "Ġvinculados": 4296,
      "Ġcesar": 4297,
      "ĠmarabÃ¡": 4298,
      "Ġcapacidade": 4299,
      "ĠreuniÃ£o": 4300,
      "Ġcategoria": 4301,
      "Ġareia": 4302,
      "Ġprocuradoria": 4303,
      "Ġprimavera": 4304,
      "Ġteresina": 4305,
      "dua": 4306,
      "let": 4307,
      "missÃ£o": 4308,
      "cante": 4309,
      "rica": 4310,
      "Ġdomi": 4311,
      "ĠnotificaÃ§Ã£o": 4312,
      "Ġfla": 4313,
      "Ġlista": 4314,
      "103": 4315,
      "104": 4316,
      "Ã©li": 4317,
      "onso": 4318,
      "Ġ322": 4319,
      "Ġmaia": 4320,
      "Ġmacedo": 4321,
      "097": 4322,
      "lar": 4323,
      "Ġutens": 4324,
      "seca": 4325,
      "corrente": 4326,
      "Ġsubi": 4327,
      "0007": 4328,
      "Ġ89": 4329,
      "Ġagenda": 4330,
      "Ġ021": 4331,
      "Ġcarga": 4332,
      "tÃ¡veis": 4333,
      "050": 4334,
      "Ġ90009": 4335,
      "guaÃ§u": 4336,
      "ĠmÃ©dio": 4337,
      "Ġ90011": 4338,
      "ĠsituaÃ§Ã£o": 4339,
      "ÃŃsticas": 4340,
      "cinal": 4341,
      "Ġfernanda": 4342,
      "Ġautoriza": 4343,
      "Ġjusti": 4344,
      "Ġarquite": 4345,
      "******": 4346,
      "ĠiniciarÃ¡": 4347,
      "Ġgarantia": 4348,
      "ĠconcessÃ£o": 4349,
      "Ġzero": 4350,
      "ĠagrÃ¡ria": 4351,
      "Ġazevedo": 4352,
      "Ġremanes": 4353,
      "Ġden": 4354,
      "Ġdele": 4355,
      "ciel": 4356,
      "026": 4357,
      "rial": 4358,
      "Ġdomin": 4359,
      "013": 4360,
      "Ġgen": 4361,
      "Ġsitio": 4362,
      "ustri": 4363,
      "minar": 4364,
      "cem": 4365,
      "ficos": 4366,
      "sede": 4367,
      "0013": 4368,
      "duc": 4369,
      "Ġ111": 4370,
      "Ġ115": 4371,
      "Ġunifor": 4372,
      "Ġcompon": 4373,
      "Ġevento": 4374,
      "Ġretificado": 4375,
      "Ġvigor": 4376,
      "Ġoficiais": 4377,
      "Ġfundamental": 4378,
      "quara": 4379,
      "Ġinstrumentos": 4380,
      "Ġguil": 4381,
      "Ġcristo": 4382,
      "Ġqd": 4383,
      "Ġlance": 4384,
      "Ġcitado": 4385,
      "Ġoriundos": 4386,
      "Ġtreinamento": 4387,
      "ustrial": 4388,
      "meira": 4389,
      "comp": 4390,
      "ismo": 4391,
      "Ġoportu": 4392,
      "telo": 4393,
      "inas": 4394,
      "rida": 4395,
      "alto": 4396,
      "Ġremar": 4397,
      "Ġpad": 4398,
      "talhÃ£o": 4399,
      "enÃ§a": 4400,
      "tur": 4401,
      "Ġ202408": 4402,
      "Ġsergipe": 4403,
      "Ġnatu": 4404,
      "Ġpermane": 4405,
      "Ġ018": 4406,
      "Ġ020": 4407,
      "1525": 4408,
      "udia": 4409,
      "999": 4410,
      "ĠbatalhÃ£o": 4411,
      "1206": 4412,
      "034": 4413,
      "Ġcomprasgov": 4414,
      "lises": 4415,
      "adares": 4416,
      "ĠmÃ©dia": 4417,
      "Ġpass": 4418,
      "Ġconsultas": 4419,
      "naldo": 4420,
      "Ġmelhor": 4421,
      "Ġcapacita": 4422,
      "Ġbastos": 4423,
      "Ġcelebrado": 4424,
      "dinÃ¡ria": 4425,
      "Ġmanifes": 4426,
      "Ġraimundo": 4427,
      "clo": 4428,
      "Â²": 4429,
      "Ġduar": 4430,
      "Ġapos": 4431,
      "cius": 4432,
      "Ġmus": 4433,
      "dado": 4434,
      "Ġpreli": 4435,
      "Ġconcorrencia": 4436,
      "Ġparana": 4437,
      "onas": 4438,
      "Ġ393": 4439,
      "Ġqueiro": 4440,
      "Ġform": 4441,
      "Ġmendon": 4442,
      "Ġespecializado": 4443,
      "manda": 4444,
      "155": 4445,
      "1559": 4446,
      "Ġinteressadas": 4447,
      "Ġleva": 4448,
      "landia": 4449,
      "Ġluciano": 4450,
      "guara": 4451,
      "194": 4452,
      "radores": 4453,
      "Ġsetores": 4454,
      "Ġinstitucional": 4455,
      "Ġjabo": 4456,
      "Ġindustrial": 4457,
      "Ġcoordenadora": 4458,
      "Ġregularidade": 4459,
      "ĠcÃ¢mara": 4460,
      "Ġluzia": 4461,
      "Ġproponente": 4462,
      "Ġveicul": 4463,
      "ĠutensÃŃlios": 4464,
      "cÃ³": 4465,
      "heiro": 4466,
      "Ġpsi": 4467,
      "rato": 4468,
      "Ġari": 4469,
      "Ġacer": 4470,
      "Ġoxig": 4471,
      "ale": 4472,
      "Ġrecei": 4473,
      "map": 4474,
      "Ġ2006": 4475,
      "Ġher": 4476,
      "Ġtrin": 4477,
      "comprasbr": 4478,
      "comprasedital": 4479,
      "Ġ926": 4480,
      "Ġempreendedor": 4481,
      "Ġhou": 4482,
      "semed": 4483,
      "0014": 4484,
      "inaÃ§u": 4485,
      "Ġvictor": 4486,
      "Ġteve": 4487,
      "Ġ017": 4488,
      "Ġ026": 4489,
      "reitor": 4490,
      "996": 4491,
      "uidade": 4492,
      "Ġmangu": 4493,
      "teses": 4494,
      "041": 4495,
      "Ġtan": 4496,
      "Ġconsultado": 4497,
      "Ġreferentes": 4498,
      "ĠÃºl": 4499,
      "Ġaracaju": 4500,
      "out": 4501,
      "Ġeletrodom": 4502,
      "Ġaplicar": 4503,
      "anexo": 4504,
      "800000": 4505,
      "ĠelÃ©tricos": 4506,
      "ĠcalÃ§a": 4507,
      "Ġcaracter": 4508,
      "registro": 4509,
      "grou": 4510,
      "Ġacompanhamento": 4511,
      "eletronico": 4512,
      "231": 4513,
      "ab": 4514,
      "cleo": 4515,
      "sf": 4516,
      "Ġy": 4517,
      "tario": 4518,
      "Ġada": 4519,
      "Ġni": 4520,
      "025": 4521,
      "alte": 4522,
      "Ġlar": 4523,
      "Ġtri": 4524,
      "Ġtcm": 4525,
      "Ġnatura": 4526,
      "vida": 4527,
      "vao": 4528,
      "Ġempenho": 4529,
      "Ġdigi": 4530,
      "ĠespecÃŃ": 4531,
      "guÃ¡": 4532,
      "piranga": 4533,
      "Ġleonar": 4534,
      "gramas": 4535,
      "ĠapuraÃ§Ã£o": 4536,
      "Ġadjunto": 4537,
      "mentares": 4538,
      "Ġretifica": 4539,
      "valdo": 4540,
      "condi": 4541,
      "Ġweb": 4542,
      "ĠinstituiÃ§Ãµes": 4543,
      "Ġpossa": 4544,
      "2014": 4545,
      "Ġapresentadas": 4546,
      "Ġesclare": 4547,
      "leiloes": 4548,
      "risul": 4549,
      "Ġcontinuidade": 4550,
      "Ġdisponibilizado": 4551,
      "Ġambula": 4552,
      "Ġdeclara": 4553,
      "Ġestudo": 4554,
      "ĠaplicÃ¡vel": 4555,
      "Ġjuliana": 4556,
      "ĠimpugnaÃ§Ã£o": 4557,
      "codevasf": 4558,
      "Ġesplanada": 4559,
      "Ġnatureza": 4560,
      "Ġduarte": 4561,
      ".Â°": 4562,
      "at": 4563,
      "cs": 4564,
      "hrs": 4565,
      "sistemas": 4566,
      "xe": 4567,
      "maz": 4568,
      "Ġip": 4569,
      "Ġilha": 4570,
      "Ã©ia": 4571,
      "ĠquÃŃ": 4572,
      "Ġsiqueira": 4573,
      "pag": 4574,
      "medi": 4575,
      "Ġvaladares": 4576,
      "Ġ124": 4577,
      "Ġ146": 4578,
      "Ġmoveis": 4579,
      "Ġleilo": 4580,
      "Ġformos": 4581,
      "Ġterra": 4582,
      "Ġarrema": 4583,
      "Ġagro": 4584,
      "Ġtornar": 4585,
      "153": 4586,
      "Ġcurso": 4587,
      "Ġdisposi": 4588,
      "Ġsales": 4589,
      "Ġcasca": 4590,
      "Ġcredenciada": 4591,
      "Ġhavendo": 4592,
      "Ġgestor": 4593,
      "pmt": 4594,
      "ĠintegraÃ§Ã£o": 4595,
      "Ġdourados": 4596,
      "Ġfreire": 4597,
      "Ġbenefici": 4598,
      "ĠpolÃŃcia": 4599,
      "Ġfloriano": 4600,
      "ĠtÃ©rmino": 4601,
      "Ġdelibe": 4602,
      "Ġpredial": 4603,
      "esseis": 4604,
      "Ġfonseca": 4605,
      "ĠfiscalizaÃ§Ã£o": 4606,
      "Ġdecorrentes": 4607,
      "Ġmanguinhos": 4608,
      "hc": 4609,
      "Ġani": 4610,
      "Ġcola": 4611,
      "erra": 4612,
      "catu": 4613,
      "dagem": 4614,
      "Ġresi": 4615,
      "Ġfnde": 4616,
      "tou": 4617,
      "Ġir": 4618,
      "Ġbento": 4619,
      "Ġsagrou": 4620,
      "cuÃ¡ria": 4621,
      "Ġ025": 4622,
      "Ġpedra": 4623,
      "127": 4624,
      "xidade": 4625,
      "Ġdocumento": 4626,
      "juÃŃ": 4627,
      "processo": 4628,
      "Ġinex": 4629,
      "xoto": 4630,
      "Ġcodeba": 4631,
      "Ġidentificado": 4632,
      "ĠobrigaÃ§Ãµes": 4633,
      "Ġpeixoto": 4634,
      "Ġassemb": 4635,
      "Ġrecapeamento": 4636,
      "Ġguilher": 4637,
      "aquis": 4638,
      "gelo": 4639,
      "mon": 4640,
      "pms": 4641,
      "Ġdete": 4642,
      "Ġentra": 4643,
      "Ġponta": 4644,
      "raÃŃ": 4645,
      "nton": 4646,
      "nidade": 4647,
      "terapia": 4648,
      "caf": 4649,
      "Ġpaiva": 4650,
      "Ġlem": 4651,
      "ĠvÃ¡": 4652,
      "016": 4653,
      "Ġrf": 4654,
      "lau": 4655,
      "mec": 4656,
      "Ġdiagn": 4657,
      "Ġtoda": 4658,
      "Ġ128": 4659,
      "Ġconsel": 4660,
      "ĠpoÃ§os": 4661,
      "Ġquadro": 4662,
      "Ġ117": 4663,
      "Ġciru": 4664,
      "Ġ028": 4665,
      "Ġmerenda": 4666,
      "1530": 4667,
      "ĠfederaÃ§Ã£o": 4668,
      "Ġaponta": 4669,
      "Ġanderson": 4670,
      "bol": 4671,
      "Ġcomplexidade": 4672,
      "Ġpires": 4673,
      "Ġintegrado": 4674,
      "Ġacessar": 4675,
      "Ġocorrer": 4676,
      "ĠanÃ¡lises": 4677,
      "Ġhigieni": 4678,
      "Ġisa": 4679,
      "Ġcesup": 4680,
      "Ġmercado": 4681,
      "login": 4682,
      "Ġcompromis": 4683,
      "ĠprevalecerÃ£o": 4684,
      "Ġmontagem": 4685,
      "Ġvelha": 4686,
      "ĠclÃŃnicas": 4687,
      "Ġlucrativos": 4688,
      "Ġetapa": 4689,
      "ĠespaÃ§o": 4690,
      "ĠbancÃ¡rio": 4691,
      "Ġleonardo": 4692,
      "Ġesclarecimento": 4693,
      "Ġguilherme": 4694,
      "dmi": 4695,
      "grÃ¡": 4696,
      "olina": 4697,
      "th": 4698,
      "tcm": 4699,
      "tante": 4700,
      "Ġcopa": 4701,
      "Ġmon": 4702,
      "Ġof": 4703,
      "ense": 4704,
      "Ġitu": 4705,
      "Ġinalte": 4706,
      "ilha": 4707,
      "Ãºst": 4708,
      "zar": 4709,
      "011": 4710,
      "Ġ300": 4711,
      "Ġavisa": 4712,
      "nambu": 4713,
      "Ġenfer": 4714,
      "vier": 4715,
      "Ġaquisi": 4716,
      "pol": 4717,
      "Ġconso": 4718,
      "Ġ179": 4719,
      "bate": 4720,
      "Ġvicina": 4721,
      "Ġagentes": 4722,
      "cionar": 4723,
      "mails": 4724,
      "guei": 4725,
      "Ġ015": 4726,
      "Ġcompare": 4727,
      "Ġ031": 4728,
      "ĠnecessÃ¡rio": 4729,
      "ĠnecessÃ¡rias": 4730,
      "252": 4731,
      "045": 4732,
      "219": 4733,
      "Ġrecebidos": 4734,
      "Ġquantidade": 4735,
      "Ġposs": 4736,
      "Ġpostal": 4737,
      "Ġcrm": 4738,
      "Ġ90013": 4739,
      "Ġ90015": 4740,
      "Ġprofesso": 4741,
      "orim": 4742,
      "lÃ³gico": 4743,
      "Ġvalidade": 4744,
      "regados": 4745,
      "Ġinicial": 4746,
      "ĠasfÃ¡ltico": 4747,
      "ĠatuaÃ§Ã£o": 4748,
      "Ġaerona": 4749,
      "ĠmobiliÃ¡rios": 4750,
      "Ġvirtude": 4751,
      "ĠprÃ³prio": 4752,
      "Ġestatuto": 4753,
      "Ġcircul": 4754,
      "ĠincÃªndio": 4755,
      "Ġcomponentes": 4756,
      "Ġvicinais": 4757,
      "806": 4758,
      "cle": 4759,
      "fm": 4760,
      "jÃ¡s": 4761,
      "ler": 4762,
      "per": 4763,
      "pma": 4764,
      "Ġgov": 4765,
      "Ġprudente": 4766,
      "Ġacha": 4767,
      "cilia": 4768,
      "027": 4769,
      "0009": 4770,
      "Ġmor": 4771,
      "ĠcrÃ©": 4772,
      "Ġpropri": 4773,
      "ÃŃso": 4774,
      "Ġsigna": 4775,
      "Ġcapital": 4776,
      "305": 4777,
      "ham": 4778,
      "Ġ127": 4779,
      "eirao": 4780,
      "Ġtercei": 4781,
      "Ġ138": 4782,
      "Ġpernambu": 4783,
      "Ġ234": 4784,
      "Ã§ao": 4785,
      "Ġfundeb": 4786,
      "Ġapren": 4787,
      "tese": 4788,
      "diario": 4789,
      "Ġfili": 4790,
      "250": 4791,
      "042": 4792,
      "Ġespecificado": 4793,
      "Ġlucia": 4794,
      "Ġcompleta": 4795,
      "Ġabreu": 4796,
      "972": 4797,
      "Ġaconte": 4798,
      "Ġmedicos": 4799,
      "Ġpalmas": 4800,
      "Ġfisio": 4801,
      "Ġrespectivo": 4802,
      "Ġplanilhas": 4803,
      "Ġdesignado": 4804,
      "ĠdescartÃ¡veis": 4805,
      "Ġbernardo": 4806,
      "Ġcachoeira": 4807,
      "Ġcarneiro": 4808,
      "Ġebserh": 4809,
      "Ġqueiroz": 4810,
      "Ġtrindade": 4811,
      "ĠhigienizaÃ§Ã£o": 4812,
      "dminton": 4813,
      "gueiredo": 4814,
      "dis": 4815,
      "fundo": 4816,
      "taÃ§Ãµes": 4817,
      "tamente": 4818,
      "Ġocor": 4819,
      "ingueiras": 4820,
      "Ġ355": 4821,
      "ceu": 4822,
      "Ġexp": 4823,
      "Ġdife": 4824,
      "home": 4825,
      "Ġpovo": 4826,
      "Ġpontes": 4827,
      "Ġ112": 4828,
      "240": 4829,
      "031": 4830,
      "Ġcomunidade": 4831,
      "ĠtransferÃªncia": 4832,
      "rinha": 4833,
      "453": 4834,
      "Ġlubri": 4835,
      "Ġcomercia": 4836,
      "siden": 4837,
      "Ġcastelo": 4838,
      "Ġkar": 4839,
      "Ġamorim": 4840,
      "ĠnÃºcleo": 4841,
      "ĠcoordenaÃ§Ã£o": 4842,
      "Ġjustificativa": 4843,
      "objeto": 4844,
      "Ġpintura": 4845,
      "Ġaprendi": 4846,
      "agem": 4847,
      "fun": 4848,
      "oficial": 4849,
      "Ġul": 4850,
      "Ġeco": 4851,
      "esp": 4852,
      "Ġ1001": 4853,
      "Ġ199": 4854,
      "tion": 4855,
      "tulo": 4856,
      "Ġ212": 4857,
      "Ġhuma": 4858,
      "ĠtÃŃ": 4859,
      "vantina": 4860,
      "Ġexpor": 4861,
      "Ġ122": 4862,
      "138": 4863,
      "Ġ139": 4864,
      "Ġpop": 4865,
      "Ġentidades": 4866,
      "Ġbrasilia": 4867,
      "Ġpeda": 4868,
      "verÃ¡": 4869,
      "Ġfund": 4870,
      "Ġ180": 4871,
      "Ġfoto": 4872,
      "Ġfix": 4873,
      "Ġchapa": 4874,
      "Ġbomb": 4875,
      "352": 4876,
      "Ġkel": 4877,
      "Ġreferencia": 4878,
      "Ġ90017": 4879,
      "Ġ90018": 4880,
      "Ġedson": 4881,
      "lÃ³gicos": 4882,
      "ammlicita": 4883,
      "ĠamapÃ¡": 4884,
      "ĠparÃ¡grafo": 4885,
      "ĠjurÃŃdicos": 4886,
      "Ġurbanas": 4887,
      "Ġpetrobras": 4888,
      "ĠsanitÃ¡rio": 4889,
      "ĠdependÃªncias": 4890,
      "Ġmineral": 4891,
      "ĠeletrodomÃ©sticos": 4892,
      "Ġapontam": 4893,
      "mer": 4894,
      "tc": 4895,
      "zinho": 4896,
      "ĠÂº": 4897,
      "cito": 4898,
      "Ġdoze": 4899,
      "Ġnob": 4900,
      "tizaÃ§Ã£o": 4901,
      "Ġprogramas": 4902,
      "ĠlÃŃ": 4903,
      "Ġbela": 4904,
      "iane": 4905,
      "Ġesto": 4906,
      "Ġcombate": 4907,
      "Ġ202409": 4908,
      "Ã³ria": 4909,
      "sar": 4910,
      "santo": 4911,
      "Ġ126": 4912,
      "uns": 4913,
      "0017": 4914,
      "Ġ119": 4915,
      "Ġleis": 4916,
      "Ġrora": 4917,
      "Ġfarias": 4918,
      "069": 4919,
      "440": 4920,
      "mbia": 4921,
      "mburgo": 4922,
      "Ġsalas": 4923,
      "450": 4924,
      "vesti": 4925,
      "160": 4926,
      "chos": 4927,
      "Ġwas": 4928,
      "orias": 4929,
      "Ġapresentados": 4930,
      "Ġbrin": 4931,
      "ĠprÃ©dios": 4932,
      "ĠmÃ³vel": 4933,
      "Ġrenato": 4934,
      "ĠreuniÃµes": 4935,
      "municipal": 4936,
      "ĠdepÃ³": 4937,
      "Ġflores": 4938,
      "Ġarquitetura": 4939,
      "Ġpernambuco": 4940,
      "ede": 4941,
      "gentes": 4942,
      "gÃ³gi": 4943,
      "hing": 4944,
      "sms": 4945,
      "Ġdel": 4946,
      "Ġdecorrente": 4947,
      "estes": 4948,
      "deu": 4949,
      "Ġpadre": 4950,
      "tologia": 4951,
      "Ġsema": 4952,
      "ÃŃgen": 4953,
      "Ġconcurso": 4954,
      "Ġqui": 4955,
      "Ġadministrativos": 4956,
      "Ġ114": 4957,
      "Ġ256": 4958,
      "emserh": 4959,
      "reiras": 4960,
      "Ġrod": 4961,
      "990": 4962,
      "Ġ034": 4963,
      "tÃ¡vel": 4964,
      "ĠÃ¡guas": 4965,
      "rÃ©m": 4966,
      "Ġdutra": 4967,
      "Ġitape": 4968,
      "Ġrelativos": 4969,
      "ĠindÃŃgen": 4970,
      "Ġvare": 4971,
      "Ġ3902": 4972,
      "Ġ23034": 4973,
      "Ġclaudia": 4974,
      "ĠaudiÃªncia": 4975,
      "Ġjudicial": 4976,
      "ĠagrÃŃcola": 4977,
      "Ġoferta": 4978,
      "Ãºstria": 4979,
      "Ġwashing": 4980,
      "Ġwashington": 4981,
      "375": 4982,
      "90001": 4983,
      "lho": 4984,
      "lfo": 4985,
      "Ġ;": 4986,
      "Ġdal": 4987,
      "Ġeu": 4988,
      "nti": 4989,
      "ciÃ¡ria": 4990,
      "cado": 4991,
      "data": 4992,
      "rigi": 4993,
      "Ġprepa": 4994,
      "Ġrepa": 4995,
      "Ġcess": 4996,
      "goas": 4997,
      "Ġletivo": 4998,
      "ĠlicitaÃ§Ã£opregÃ£o": 4999
    },
    "merges": [
      [
        "Ġ",
        "d"
      ],
      [
        "Ġd",
        "e"
      ],
      [
        "Ġ",
        "e"
      ],
      [
        "Ġ",
        "p"
      ],
      [
        "r",
        "a"
      ],
      [
        "č",
        "Ċ"
      ],
      [
        "t",
        "a"
      ],
      [
        "r",
        "e"
      ],
      [
        "Ġ",
        "a"
      ],
      [
        "c",
        "o"
      ],
      [
        "Ã",
        "§"
      ],
      [
        "Ã",
        "£"
      ],
      [
        "Ã£",
        "o"
      ],
      [
        "Ġ",
        "n"
      ],
      [
        "Ġ",
        "s"
      ],
      [
        "n",
        "t"
      ],
      [
        "o",
        "s"
      ],
      [
        "c",
        "i"
      ],
      [
        "0",
        "2"
      ],
      [
        "l",
        "i"
      ],
      [
        "0",
        "0"
      ],
      [
        "i",
        "s"
      ],
      [
        "2",
        "02"
      ],
      [
        "o",
        "r"
      ],
      [
        "e",
        "s"
      ],
      [
        "r",
        "o"
      ],
      [
        "202",
        "4"
      ],
      [
        "Ã§",
        "Ã£o"
      ],
      [
        "Ġ",
        "co"
      ],
      [
        "e",
        "r"
      ],
      [
        "Ġ",
        "m"
      ],
      [
        "a",
        "s"
      ],
      [
        "Ġ",
        "o"
      ],
      [
        "Ġ",
        "čĊ"
      ],
      [
        "n",
        "i"
      ],
      [
        "Ġ",
        "1"
      ],
      [
        "t",
        "e"
      ],
      [
        "c",
        "a"
      ],
      [
        "i",
        "n"
      ],
      [
        "e",
        "nt"
      ],
      [
        "d",
        "a"
      ],
      [
        "r",
        "i"
      ],
      [
        "e",
        "t"
      ],
      [
        "Ġp",
        "re"
      ],
      [
        "a",
        "l"
      ],
      [
        "Ġd",
        "o"
      ],
      [
        "Â",
        "º"
      ],
      [
        "w",
        "w"
      ],
      [
        "d",
        "e"
      ],
      [
        "Ġ",
        "re"
      ],
      [
        "d",
        "i"
      ],
      [
        "Ġd",
        "a"
      ],
      [
        "Ġ",
        "-"
      ],
      [
        "Ġn",
        "Âº"
      ],
      [
        "Ġn",
        "o"
      ],
      [
        "d",
        "o"
      ],
      [
        "Ġp",
        "a"
      ],
      [
        "m",
        "a"
      ],
      [
        "Ġ",
        "0"
      ],
      [
        "r",
        "Ã"
      ],
      [
        "m",
        "p"
      ],
      [
        "Ġ",
        "c"
      ],
      [
        "Ġ",
        "f"
      ],
      [
        "ci",
        "ta"
      ],
      [
        "q",
        "u"
      ],
      [
        "e",
        "i"
      ],
      [
        "Ġ",
        "Ã"
      ],
      [
        "ta",
        "l"
      ],
      [
        "t",
        "o"
      ],
      [
        "Ġ",
        "li"
      ],
      [
        "t",
        "i"
      ],
      [
        "e",
        "n"
      ],
      [
        "t",
        "u"
      ],
      [
        "g",
        "o"
      ],
      [
        "Ġ",
        "2"
      ],
      [
        "Ġs",
        "e"
      ],
      [
        "Ġp",
        "ro"
      ],
      [
        "b",
        "r"
      ],
      [
        "m",
        "ent"
      ],
      [
        "Ġli",
        "cita"
      ],
      [
        "ra",
        "s"
      ],
      [
        "Ġ",
        "l"
      ],
      [
        "ĠÃ",
        "ł"
      ],
      [
        "u",
        "ni"
      ],
      [
        "Ã",
        "¡"
      ],
      [
        "Ã",
        "Ń"
      ],
      [
        "Ġ",
        "h"
      ],
      [
        "Ġ",
        "i"
      ],
      [
        "Ġco",
        "n"
      ],
      [
        "Ġpa",
        "ra"
      ],
      [
        "Ġe",
        "l"
      ],
      [
        "Ġ",
        "("
      ],
      [
        "ĠÃł",
        "s"
      ],
      [
        "Ġ",
        "v"
      ],
      [
        "es",
        "s"
      ],
      [
        "re",
        "s"
      ],
      [
        "´",
        "ni"
      ],
      [
        "e",
        "l"
      ],
      [
        "Ġ",
        "in"
      ],
      [
        "Ġel",
        "et"
      ],
      [
        "1",
        "0"
      ],
      [
        "ww",
        "w"
      ],
      [
        "Ġ",
        "b"
      ],
      [
        "Ã",
        "µ"
      ],
      [
        "Ãµ",
        "es"
      ],
      [
        "rÃ",
        "´ni"
      ],
      [
        "go",
        "v"
      ],
      [
        "Ġelet",
        "rÃ´ni"
      ],
      [
        "Ġd",
        "as"
      ],
      [
        "ci",
        "a"
      ],
      [
        "i",
        "a"
      ],
      [
        "Ġe",
        "s"
      ],
      [
        "ment",
        "o"
      ],
      [
        "Ã§",
        "Ãµes"
      ],
      [
        "Ġ",
        "t"
      ],
      [
        "a",
        "n"
      ],
      [
        "Ġo",
        "b"
      ],
      [
        "nt",
        "ra"
      ],
      [
        "Ġm",
        "uni"
      ],
      [
        "tu",
        "ra"
      ],
      [
        "Ġa",
        "v"
      ],
      [
        "Ġco",
        "m"
      ],
      [
        "di",
        "tal"
      ],
      [
        "i",
        "l"
      ],
      [
        "Ã",
        "©"
      ],
      [
        "Ġlicita",
        "Ã§Ã£o"
      ],
      [
        "g",
        "Ã£o"
      ],
      [
        "ĠeletrÃ´ni",
        "co"
      ],
      [
        "Ġco",
        "ntra"
      ],
      [
        "o",
        "n"
      ],
      [
        "Ġpre",
        "gÃ£o"
      ],
      [
        "Ã",
        "º"
      ],
      [
        "z",
        "a"
      ],
      [
        "0",
        "1"
      ],
      [
        "mp",
        "ras"
      ],
      [
        "Ġ",
        "3"
      ],
      [
        "is",
        "t"
      ],
      [
        "f",
        "or"
      ],
      [
        "Ġ",
        "www"
      ],
      [
        "Ġ",
        "g"
      ],
      [
        "j",
        "et"
      ],
      [
        "Ġe",
        "dital"
      ],
      [
        "Ġ",
        "qu"
      ],
      [
        "Ġo",
        "u"
      ],
      [
        "Ġav",
        "is"
      ],
      [
        "d",
        "os"
      ],
      [
        "c",
        "ess"
      ],
      [
        "ta",
        "Ã§Ã£o"
      ],
      [
        "te",
        "n"
      ],
      [
        "Ġ",
        "2024"
      ],
      [
        "b",
        "li"
      ],
      [
        "Ġavis",
        "o"
      ],
      [
        "ri",
        "o"
      ],
      [
        "Ġs",
        "i"
      ],
      [
        "Ġm",
        "a"
      ],
      [
        "p",
        "os"
      ],
      [
        "Ġs",
        "er"
      ],
      [
        "g",
        "a"
      ],
      [
        "u",
        "l"
      ],
      [
        "n",
        "cia"
      ],
      [
        "Ġob",
        "jet"
      ],
      [
        "Ġn",
        "a"
      ],
      [
        "nt",
        "e"
      ],
      [
        "Ġ",
        "r"
      ],
      [
        "b",
        "ro"
      ],
      [
        "co",
        "mpras"
      ],
      [
        "Ã§",
        "o"
      ],
      [
        "n",
        "a"
      ],
      [
        "ci",
        "p"
      ],
      [
        "Ġ",
        "j"
      ],
      [
        "ta",
        "s"
      ],
      [
        "Ġe",
        "m"
      ],
      [
        "Ġobjet",
        "o"
      ],
      [
        "n",
        "e"
      ],
      [
        "Ġe",
        "n"
      ],
      [
        "v",
        "i"
      ],
      [
        "u",
        "s"
      ],
      [
        "ri",
        "a"
      ],
      [
        "Ġmuni",
        "cip"
      ],
      [
        "Ġpro",
        "pos"
      ],
      [
        "Ġa",
        "s"
      ],
      [
        "i",
        "o"
      ],
      [
        "Ġsi",
        "te"
      ],
      [
        "p",
        "e"
      ],
      [
        "m",
        "in"
      ],
      [
        "li",
        "za"
      ],
      [
        "l",
        "o"
      ],
      [
        "Ġ",
        "ca"
      ],
      [
        "Ġp",
        "or"
      ],
      [
        "Ġ",
        "9"
      ],
      [
        "v",
        "a"
      ],
      [
        "Ġ0",
        "8"
      ],
      [
        "b",
        "er"
      ],
      [
        "m",
        "o"
      ],
      [
        "Ġmunicip",
        "al"
      ],
      [
        "cess",
        "o"
      ],
      [
        "Ġpropos",
        "tas"
      ],
      [
        "ª",
        "ncia"
      ],
      [
        "s",
        "i"
      ],
      [
        "te",
        "m"
      ],
      [
        "0",
        "9"
      ],
      [
        "Ã§",
        "os"
      ],
      [
        "Ġre",
        "a"
      ],
      [
        "Ãº",
        "bli"
      ],
      [
        "Ġp",
        "Ãºbli"
      ],
      [
        "Ġre",
        "g"
      ],
      [
        "da",
        "de"
      ],
      [
        "Ġpro",
        "cesso"
      ],
      [
        "Ġ0",
        "9"
      ],
      [
        "for",
        "ma"
      ],
      [
        "p",
        "a"
      ],
      [
        "Ġcontra",
        "taÃ§Ã£o"
      ],
      [
        "Ġe",
        "mp"
      ],
      [
        "l",
        "a"
      ],
      [
        "c",
        "re"
      ],
      [
        "ent",
        "e"
      ],
      [
        "v",
        "o"
      ],
      [
        "f",
        "ei"
      ],
      [
        "Ġd",
        "is"
      ],
      [
        "t",
        "t"
      ],
      [
        "/",
        "/"
      ],
      [
        "c",
        "e"
      ],
      [
        "tt",
        "p"
      ],
      [
        "Ã",
        "³"
      ],
      [
        ":",
        "//"
      ],
      [
        "i",
        "Ã§Ã£o"
      ],
      [
        "Ġa",
        "d"
      ],
      [
        "m",
        "e"
      ],
      [
        "Ġe",
        "x"
      ],
      [
        "s",
        "a"
      ],
      [
        "Ġa",
        "ber"
      ],
      [
        "d",
        "as"
      ],
      [
        "Ġd",
        "i"
      ],
      [
        "Ġh",
        "ttp"
      ],
      [
        "Ġa",
        "t"
      ],
      [
        "Ġemp",
        "res"
      ],
      [
        "Ġs",
        "a"
      ],
      [
        "Ġd",
        "ia"
      ],
      [
        "Ġqu",
        "e"
      ],
      [
        "Ġh",
        "o"
      ],
      [
        "Ã¡",
        "rio"
      ],
      [
        "en",
        "ta"
      ],
      [
        "Ġ",
        "to"
      ],
      [
        "00",
        "01"
      ],
      [
        "3",
        "0"
      ],
      [
        "f",
        "i"
      ],
      [
        "Ġd",
        "os"
      ],
      [
        "Ġin",
        "forma"
      ],
      [
        "Ġpre",
        "fei"
      ],
      [
        "Ġ",
        "u"
      ],
      [
        "Ġs",
        "o"
      ],
      [
        "h",
        "a"
      ],
      [
        "Ġaber",
        "tura"
      ],
      [
        "ca",
        "Ã§Ã£o"
      ],
      [
        "qu",
        "is"
      ],
      [
        "Ġv",
        "al"
      ],
      [
        "c",
        "ÃŃ"
      ],
      [
        "Ġempres",
        "a"
      ],
      [
        "Ġ",
        "4"
      ],
      [
        "Ġp",
        "el"
      ],
      [
        "u",
        "a"
      ],
      [
        "ra",
        "n"
      ],
      [
        "Ġ1",
        "0"
      ],
      [
        "Ġde",
        "s"
      ],
      [
        "Ġpa",
        "r"
      ],
      [
        "Ġhttp",
        "s"
      ],
      [
        "Ġ1",
        "2"
      ],
      [
        "Ġ1",
        "4"
      ],
      [
        "c",
        "u"
      ],
      [
        "Ġreg",
        "ist"
      ],
      [
        "Ġa",
        "quis"
      ],
      [
        "l",
        "e"
      ],
      [
        "Ġser",
        "vi"
      ],
      [
        "p",
        "o"
      ],
      [
        "cÃŃ",
        "p"
      ],
      [
        "s",
        "e"
      ],
      [
        "de",
        "re"
      ],
      [
        "co",
        "m"
      ],
      [
        "tu",
        "bro"
      ],
      [
        "Ġen",
        "dere"
      ],
      [
        "Ġse",
        "cre"
      ],
      [
        "Ġou",
        "tubro"
      ],
      [
        "Ġmuni",
        "cÃŃp"
      ],
      [
        "u",
        "n"
      ],
      [
        "Ġval",
        "or"
      ],
      [
        "d",
        "er"
      ],
      [
        "Ġm",
        "o"
      ],
      [
        "ĠmunicÃŃp",
        "io"
      ],
      [
        "Ġcon",
        "s"
      ],
      [
        "Ġaquis",
        "iÃ§Ã£o"
      ],
      [
        "d",
        "es"
      ],
      [
        "Ġinforma",
        "Ã§Ãµes"
      ],
      [
        "Ġendere",
        "Ã§o"
      ],
      [
        "Ġes",
        "pe"
      ],
      [
        "co",
        "r"
      ],
      [
        "Ġdis",
        "p"
      ],
      [
        "Ġl",
        "o"
      ],
      [
        "b",
        "i"
      ],
      [
        "ra",
        "l"
      ],
      [
        "as",
        "g"
      ],
      [
        "Ġs",
        "u"
      ],
      [
        "a",
        "r"
      ],
      [
        "v",
        "e"
      ],
      [
        "Ã",
        "ªncia"
      ],
      [
        "Ġes",
        "ta"
      ],
      [
        "Ġ1",
        "7"
      ],
      [
        "ei",
        "ro"
      ],
      [
        "n",
        "et"
      ],
      [
        "tem",
        "bro"
      ],
      [
        "Ġse",
        "tembro"
      ],
      [
        "00",
        "1"
      ],
      [
        "Ġl",
        "ei"
      ],
      [
        "n",
        "p"
      ],
      [
        "r",
        "u"
      ],
      [
        "Ġregist",
        "ro"
      ],
      [
        "Ġ",
        "5"
      ],
      [
        "np",
        "j"
      ],
      [
        "Ġpar",
        "ti"
      ],
      [
        "ei",
        "ra"
      ],
      [
        "Ġf",
        "or"
      ],
      [
        "Ġa",
        "l"
      ],
      [
        "ment",
        "os"
      ],
      [
        "Ġin",
        "s"
      ],
      [
        "Ġto",
        "tal"
      ],
      [
        "t",
        "er"
      ],
      [
        "Ġt",
        "er"
      ],
      [
        "ĠpÃºbli",
        "co"
      ],
      [
        "Ġ1",
        "5"
      ],
      [
        "Ġc",
        "npj"
      ],
      [
        "Ġa",
        "ten"
      ],
      [
        "Ġl",
        "t"
      ],
      [
        "b",
        "a"
      ],
      [
        "ci",
        "o"
      ],
      [
        "Ġlt",
        "da"
      ],
      [
        "ta",
        "ria"
      ],
      [
        "00",
        "0"
      ],
      [
        "Ġ",
        "6"
      ],
      [
        "Ġ",
        "7"
      ],
      [
        "rÃ",
        "¡"
      ],
      [
        "in",
        "a"
      ],
      [
        "h",
        "o"
      ],
      [
        "d",
        "u"
      ],
      [
        "da",
        "des"
      ],
      [
        "1",
        "3"
      ],
      [
        "Ġ1",
        "3"
      ],
      [
        "Ġcon",
        "for"
      ],
      [
        "Ġp",
        "o"
      ],
      [
        "ci",
        "al"
      ],
      [
        "Ġv",
        "i"
      ],
      [
        "Ġrea",
        "liza"
      ],
      [
        "c",
        "as"
      ],
      [
        "Ġi",
        "nte"
      ],
      [
        "ist",
        "ra"
      ],
      [
        "Ġparti",
        "r"
      ],
      [
        ")",
        "."
      ],
      [
        "Ã©",
        "s"
      ],
      [
        "min",
        "istra"
      ],
      [
        "ra",
        "v"
      ],
      [
        "Ġpel",
        "o"
      ],
      [
        "Ġad",
        "ministra"
      ],
      [
        "li",
        "dade"
      ],
      [
        "Ġ",
        "8"
      ],
      [
        "Ġservi",
        "Ã§os"
      ],
      [
        "Ġt",
        "or"
      ],
      [
        "Ġpre",
        "s"
      ],
      [
        "Ġprefei",
        "tura"
      ],
      [
        "Ġqu",
        "a"
      ],
      [
        "Ġat",
        "rav"
      ],
      [
        "ent",
        "os"
      ],
      [
        "Ġa",
        "r"
      ],
      [
        "Ġpre",
        "Ã§os"
      ],
      [
        "Ġa",
        "g"
      ],
      [
        "Ġatrav",
        "Ã©s"
      ],
      [
        "Ġ",
        "te"
      ],
      [
        "Ġtor",
        "na"
      ],
      [
        "Ġ1",
        "1"
      ],
      [
        "Ġ1",
        "6"
      ],
      [
        "Ġe",
        "nt"
      ],
      [
        "u",
        "bli"
      ],
      [
        "Ġconfor",
        "me"
      ],
      [
        "ti",
        "vo"
      ],
      [
        "Ġ2",
        "5"
      ],
      [
        "or",
        "Ã¡rio"
      ],
      [
        "Ġm",
        "il"
      ],
      [
        "rÃ",
        "ªncia"
      ],
      [
        "n",
        "o"
      ],
      [
        "Ġpre",
        "Ã§o"
      ],
      [
        "ten",
        "s"
      ],
      [
        "Ġ",
        "uni"
      ],
      [
        "ci",
        "on"
      ],
      [
        "Ġg",
        "e"
      ],
      [
        "Ġb",
        "ras"
      ],
      [
        "li",
        "cita"
      ],
      [
        "ma",
        "il"
      ],
      [
        "Ã",
        "ª"
      ],
      [
        "ne",
        "x"
      ],
      [
        "Ġa",
        "nex"
      ],
      [
        "d",
        "or"
      ],
      [
        "g",
        "u"
      ],
      [
        "p",
        "i"
      ],
      [
        "p",
        "or"
      ],
      [
        "e",
        "m"
      ],
      [
        "Ġsecre",
        "taria"
      ],
      [
        "li",
        "a"
      ],
      [
        "Ġ",
        "ci"
      ],
      [
        "Ġs",
        "ess"
      ],
      [
        ")",
        ","
      ],
      [
        "Ġent",
        "re"
      ],
      [
        "Ġpre",
        "go"
      ],
      [
        "Ġa",
        "o"
      ],
      [
        "Ġi",
        "tens"
      ],
      [
        "1",
        "1"
      ],
      [
        "Ġda",
        "ta"
      ],
      [
        "qu",
        "i"
      ],
      [
        "t",
        "os"
      ],
      [
        "ci",
        "mento"
      ],
      [
        "Ãº",
        "de"
      ],
      [
        "Ġsa",
        "Ãºde"
      ],
      [
        "Ġc",
        "ent"
      ],
      [
        "s",
        "Ã£o"
      ],
      [
        "s",
        "o"
      ],
      [
        "Ġho",
        "ras"
      ],
      [
        "cor",
        "rÃªncia"
      ],
      [
        "Ġinte",
        "res"
      ],
      [
        "Ġre",
        "f"
      ],
      [
        "Ġn",
        "os"
      ],
      [
        "Ġrea",
        "is"
      ],
      [
        "Ġp",
        "er"
      ],
      [
        "Â",
        "°"
      ],
      [
        "Ġcon",
        "corrÃªncia"
      ],
      [
        "Ġ0",
        "1"
      ],
      [
        "Ġ2",
        "3"
      ],
      [
        "Ġm",
        "en"
      ],
      [
        "liza",
        "da"
      ],
      [
        "Ġ",
        "or"
      ],
      [
        "Ġ",
        "02"
      ],
      [
        "t",
        "or"
      ],
      [
        "Ġco",
        "mp"
      ],
      [
        "Ġ2",
        "4"
      ],
      [
        "Ġ",
        "os"
      ],
      [
        "v",
        "el"
      ],
      [
        "Ġf",
        "e"
      ],
      [
        "Ġma",
        "ter"
      ],
      [
        "m",
        "i"
      ],
      [
        "202",
        "3"
      ],
      [
        "Ġespe",
        "cia"
      ],
      [
        "mo",
        "lo"
      ],
      [
        "Ġm",
        "e"
      ],
      [
        "re",
        "i"
      ],
      [
        "ĠeletrÃ´ni",
        "ca"
      ],
      [
        "Ġu",
        "asg"
      ],
      [
        "ma",
        "n"
      ],
      [
        "1",
        "5"
      ],
      [
        "Ġinteres",
        "sa"
      ],
      [
        "Ġho",
        "molo"
      ],
      [
        "Ġaten",
        "der"
      ],
      [
        "t",
        "ru"
      ],
      [
        "ĠpÃºbli",
        "ca"
      ],
      [
        "Ġp",
        "e"
      ],
      [
        "fi",
        "ca"
      ],
      [
        "t",
        "Ã³"
      ],
      [
        "Ġsess",
        "Ã£o"
      ],
      [
        "Ġn",
        "e"
      ],
      [
        "Ġentre",
        "ga"
      ],
      [
        "r",
        "os"
      ],
      [
        "Ġ",
        "ti"
      ],
      [
        "nt",
        "o"
      ],
      [
        "m",
        "os"
      ],
      [
        "2",
        "4"
      ],
      [
        "u",
        "di"
      ],
      [
        "v",
        "os"
      ],
      [
        "i",
        "dades"
      ],
      [
        "Ġl",
        "e"
      ],
      [
        "co",
        "s"
      ],
      [
        "Ġ3",
        "0"
      ],
      [
        "Ġlicita",
        "Ã§Ãµes"
      ],
      [
        "v",
        "er"
      ],
      [
        "Ġi",
        "tem"
      ],
      [
        "Ġ",
        "ro"
      ],
      [
        "Ġanex",
        "os"
      ],
      [
        "Ġcontra",
        "ta"
      ],
      [
        "g",
        "i"
      ],
      [
        "9",
        "9"
      ],
      [
        "Ġsu",
        "p"
      ],
      [
        "Ġb",
        "a"
      ],
      [
        "Ġinteressa",
        "dos"
      ],
      [
        "Ġfe",
        "de"
      ],
      [
        "Ġf",
        "a"
      ],
      [
        "Ġhomolo",
        "ga"
      ],
      [
        "Ã§",
        "a"
      ],
      [
        "Ġf",
        "un"
      ],
      [
        "m",
        "g"
      ],
      [
        "Ġ2",
        "6"
      ],
      [
        "Ġs",
        "il"
      ],
      [
        "Ġcent",
        "ro"
      ],
      [
        "ÃŃ",
        "lia"
      ],
      [
        "g",
        "ra"
      ],
      [
        "s",
        "p"
      ],
      [
        "c",
        "ri"
      ],
      [
        "Ġp",
        "ra"
      ],
      [
        "nt",
        "es"
      ],
      [
        "Ġter",
        "mo"
      ],
      [
        "Ġespecia",
        "lizada"
      ],
      [
        "Ġti",
        "po"
      ],
      [
        "1",
        "2"
      ],
      [
        "ra",
        "is"
      ],
      [
        "Ġa",
        "p"
      ],
      [
        "Ġfor",
        "ne"
      ],
      [
        "n",
        "c"
      ],
      [
        "Ġ2",
        "7"
      ],
      [
        "Ġmen",
        "or"
      ],
      [
        "Ġfede",
        "ral"
      ],
      [
        "Ġ1",
        "8"
      ],
      [
        "tÃ³",
        "rio"
      ],
      [
        "Ġcontra",
        "to"
      ],
      [
        "ri",
        "b"
      ],
      [
        "Ġ0",
        "3"
      ],
      [
        "Ġlo",
        "ca"
      ],
      [
        "an",
        "do"
      ],
      [
        "v",
        "ent"
      ],
      [
        "Ġbras",
        "ÃŃlia"
      ],
      [
        "Ġlicita",
        "dos"
      ],
      [
        "Ġne",
        "cess"
      ],
      [
        "Ġma",
        "r"
      ],
      [
        "b",
        "al"
      ],
      [
        "Ġca",
        "r"
      ],
      [
        "Ġh",
        "orÃ¡rio"
      ],
      [
        "ca",
        "o"
      ],
      [
        "Ġe",
        "qui"
      ],
      [
        "13",
        "3"
      ],
      [
        "Ġas",
        "s"
      ],
      [
        "Ġse",
        "us"
      ],
      [
        "c",
        "ul"
      ],
      [
        "5",
        "9"
      ],
      [
        "Ġ0",
        "4"
      ],
      [
        "Ġprefei",
        "to"
      ],
      [
        "Ġp",
        "ubli"
      ],
      [
        "u",
        "i"
      ],
      [
        "Ġa",
        "n"
      ],
      [
        "on",
        "ÃŃ"
      ],
      [
        "Ġs",
        "Ã£o"
      ],
      [
        "e",
        "dital"
      ],
      [
        "e",
        "cu"
      ],
      [
        "Ġdisp",
        "onÃŃ"
      ],
      [
        "er",
        "i"
      ],
      [
        "Ġsil",
        "va"
      ],
      [
        "t",
        "ra"
      ],
      [
        "Ġmo",
        "da"
      ],
      [
        "z",
        "o"
      ],
      [
        "Ġmoda",
        "lidade"
      ],
      [
        "Ġpor",
        "tal"
      ],
      [
        "Ġr",
        "ua"
      ],
      [
        "Ġex",
        "ecu"
      ],
      [
        "Ãª",
        "n"
      ],
      [
        "Ġad",
        "j"
      ],
      [
        "c",
        "entos"
      ],
      [
        "0",
        "3"
      ],
      [
        "r",
        "s"
      ],
      [
        "Ġ",
        "."
      ],
      [
        "is",
        "sÃ£o"
      ],
      [
        "0",
        "6"
      ],
      [
        "Ġge",
        "rais"
      ],
      [
        "Ġpo",
        "der"
      ],
      [
        "4",
        "4"
      ],
      [
        "202",
        "1"
      ],
      [
        "Ġc",
        "u"
      ],
      [
        "cion",
        "al"
      ],
      [
        "u",
        "ta"
      ],
      [
        "ra",
        "Ã§Ã£o"
      ],
      [
        "Ġ0",
        "7"
      ],
      [
        "d",
        "ente"
      ],
      [
        "Ġadministra",
        "tivo"
      ],
      [
        "si",
        "asg"
      ],
      [
        "ran",
        "s"
      ],
      [
        "a",
        "Ã§Ã£o"
      ],
      [
        "siasg",
        "net"
      ],
      [
        "Ġag",
        "ente"
      ],
      [
        "Ġadj",
        "udi"
      ],
      [
        "Ġco",
        "mpras"
      ],
      [
        "ul",
        "ta"
      ],
      [
        "Ġ",
        "00"
      ],
      [
        "or",
        "g"
      ],
      [
        "Ġat",
        "Ã©"
      ],
      [
        "Ġprego",
        "eiro"
      ],
      [
        "Ġforne",
        "cimento"
      ],
      [
        "6",
        "6"
      ],
      [
        "Ġre",
        "s"
      ],
      [
        "t",
        "Ã¡"
      ],
      [
        "do",
        "ra"
      ],
      [
        "Ġm",
        "an"
      ],
      [
        "on",
        "e"
      ],
      [
        "ÃŃ",
        "cio"
      ],
      [
        "Ġj",
        "u"
      ],
      [
        "is",
        "te"
      ],
      [
        "t",
        "es"
      ],
      [
        "t",
        "ro"
      ],
      [
        "di",
        "a"
      ],
      [
        "co",
        "es"
      ],
      [
        "m",
        "en"
      ],
      [
        "ia",
        "is"
      ],
      [
        "Ġf",
        "o"
      ],
      [
        "b",
        "el"
      ],
      [
        "Ġe",
        "vent"
      ],
      [
        "Ġequi",
        "pa"
      ],
      [
        "er",
        "Ãªncia"
      ],
      [
        "Ġcon",
        "di"
      ],
      [
        "Ġ2",
        "1"
      ],
      [
        "m",
        "as"
      ],
      [
        "3",
        "1"
      ],
      [
        "Ġf",
        "i"
      ],
      [
        "Ġso",
        "b"
      ],
      [
        "u",
        "al"
      ],
      [
        "Ġe",
        "du"
      ],
      [
        "2",
        "5"
      ],
      [
        "di",
        "ca"
      ],
      [
        "2",
        "6"
      ],
      [
        "Ġ",
        "go"
      ],
      [
        "r",
        "p"
      ],
      [
        "j",
        "o"
      ],
      [
        "0",
        "8"
      ],
      [
        "h",
        "e"
      ],
      [
        "ment",
        "e"
      ],
      [
        "0",
        "4"
      ],
      [
        "t",
        "Ã¡rio"
      ],
      [
        "Ġre",
        "ce"
      ],
      [
        "ve",
        "is"
      ],
      [
        "2",
        "1"
      ],
      [
        "Ġcom",
        "issÃ£o"
      ],
      [
        "Ġhomologa",
        "Ã§Ã£o"
      ],
      [
        "Ġser",
        "Ã¡"
      ],
      [
        "Ġpel",
        "a"
      ],
      [
        "Ġi",
        "nt"
      ],
      [
        "di",
        "mento"
      ],
      [
        "Ã",
        "¢"
      ],
      [
        "ei",
        "o"
      ],
      [
        "m",
        "b"
      ],
      [
        "p",
        "es"
      ],
      [
        "Ġnecess",
        "idades"
      ],
      [
        "ri",
        "os"
      ],
      [
        "00",
        "001"
      ],
      [
        "Ġmater",
        "iais"
      ],
      [
        "pi",
        "tal"
      ],
      [
        "ci",
        "as"
      ],
      [
        "an",
        "ta"
      ],
      [
        "Ġdisp",
        "uta"
      ],
      [
        "ti",
        "va"
      ],
      [
        "Ġg",
        "lo"
      ],
      [
        "Ġcom",
        "o"
      ],
      [
        "Ġpres",
        "taÃ§Ã£o"
      ],
      [
        "Ġl",
        "a"
      ],
      [
        "Ġreg",
        "i"
      ],
      [
        "Ġespe",
        "ci"
      ],
      [
        "Ġar",
        "t"
      ],
      [
        "iste",
        "ma"
      ],
      [
        "Ġglo",
        "bal"
      ],
      [
        "m",
        "enta"
      ],
      [
        "co",
        "ntra"
      ],
      [
        "0",
        "5"
      ],
      [
        "i",
        "al"
      ],
      [
        "Ġv",
        "is"
      ],
      [
        "Ġedu",
        "caÃ§Ã£o"
      ],
      [
        "Ġ9",
        "00"
      ],
      [
        "nt",
        "os"
      ],
      [
        "Ġse",
        "gu"
      ],
      [
        "Ġcondi",
        "Ã§Ãµes"
      ],
      [
        "Ġh",
        "os"
      ],
      [
        "Ġref",
        "erÃªncia"
      ],
      [
        "Ġf",
        "u"
      ],
      [
        "Ġin",
        "ÃŃcio"
      ],
      [
        "Ġespeci",
        "fica"
      ],
      [
        "c",
        "l"
      ],
      [
        "Ġc",
        "enta"
      ],
      [
        "Ġm",
        "eio"
      ],
      [
        "Ġexecu",
        "Ã§Ã£o"
      ],
      [
        "Ġal",
        "te"
      ],
      [
        "Ġcenta",
        "vos"
      ],
      [
        "Ġte",
        "le"
      ],
      [
        "Ġpra",
        "zo"
      ],
      [
        "i",
        "g"
      ],
      [
        "Ġdis",
        "pos"
      ],
      [
        "Ġequipa",
        "mentos"
      ],
      [
        "ĠdisponÃŃ",
        "vel"
      ],
      [
        "Ġesta",
        "do"
      ],
      [
        "z",
        "e"
      ],
      [
        "Ġrece",
        "bi"
      ],
      [
        "Ġc",
        "re"
      ],
      [
        "Ġ",
        "\""
      ],
      [
        "por",
        "tal"
      ],
      [
        "Ġcom",
        "uni"
      ],
      [
        "Ġ1",
        "9"
      ],
      [
        "Ġc",
        "e"
      ],
      [
        "Ġevent",
        "ual"
      ],
      [
        "0",
        "02"
      ],
      [
        "Ãªn",
        "cias"
      ],
      [
        "Ġs",
        "istema"
      ],
      [
        "Ġa",
        "u"
      ],
      [
        "Ġo",
        "i"
      ],
      [
        "ma",
        "is"
      ],
      [
        "Ġv",
        "en"
      ],
      [
        "Ġt",
        "rans"
      ],
      [
        "g",
        "en"
      ],
      [
        "b",
        "o"
      ],
      [
        "p",
        "ubli"
      ],
      [
        "de",
        "na"
      ],
      [
        "r",
        "in"
      ],
      [
        "Ġs",
        "al"
      ],
      [
        "Ġ2",
        "2"
      ],
      [
        "Ġf",
        "er"
      ],
      [
        "Ġco",
        "r"
      ],
      [
        "ten",
        "Ã§Ã£o"
      ],
      [
        "Ġhos",
        "pital"
      ],
      [
        "a",
        "mento"
      ],
      [
        "Ġtele",
        "f"
      ],
      [
        "Ġre",
        "ti"
      ],
      [
        ".",
        "."
      ],
      [
        "Ġdi",
        "as"
      ],
      [
        "Ġco",
        "nt"
      ],
      [
        "Ġj",
        "os"
      ],
      [
        "Ġsa",
        "ntos"
      ],
      [
        "Ġlicita",
        "tÃ³rio"
      ],
      [
        "Ġ",
        "ra"
      ],
      [
        "Ġprego",
        "eira"
      ],
      [
        "4",
        "5"
      ],
      [
        "rei",
        "ra"
      ],
      [
        "f",
        "e"
      ],
      [
        "Ġ",
        "ta"
      ],
      [
        "Ġespecifica",
        "Ã§Ãµes"
      ],
      [
        "l",
        "an"
      ],
      [
        "Ġl",
        "u"
      ],
      [
        "li",
        "s"
      ],
      [
        "Ġna",
        "cional"
      ],
      [
        "i",
        "x"
      ],
      [
        "Ġre",
        "cu"
      ],
      [
        "Ġci",
        "n"
      ],
      [
        "Ġm",
        "es"
      ],
      [
        "Ġa",
        "os"
      ],
      [
        "ul",
        "ga"
      ],
      [
        "Ġdi",
        "re"
      ],
      [
        "ĠÃ",
        "©"
      ],
      [
        "3",
        "8"
      ],
      [
        "Ġint",
        "er"
      ],
      [
        "bel",
        "e"
      ],
      [
        "a",
        "do"
      ],
      [
        "0",
        "7"
      ],
      [
        "Ġs",
        "rp"
      ],
      [
        "Ġen",
        "contra"
      ],
      [
        "3",
        "6"
      ],
      [
        "h",
        "orÃ¡rio"
      ],
      [
        "licita",
        "coes"
      ],
      [
        "Ġde",
        "mais"
      ],
      [
        "Ġfor",
        "ma"
      ],
      [
        "ti",
        "ca"
      ],
      [
        "Ġesta",
        "bele"
      ],
      [
        "Ġcons",
        "tru"
      ],
      [
        "Ġvi",
        "g"
      ],
      [
        "rÃ",
        "Ń"
      ],
      [
        "Ġins",
        "cri"
      ],
      [
        "re",
        "n"
      ],
      [
        "3",
        "4"
      ],
      [
        "Ġcom",
        "er"
      ],
      [
        "Ġc",
        "ha"
      ],
      [
        "a",
        "is"
      ],
      [
        "Ġadministra",
        "Ã§Ã£o"
      ],
      [
        "Ġca",
        "mp"
      ],
      [
        "Ġ",
        "rio"
      ],
      [
        "Ġa",
        "li"
      ],
      [
        "ent",
        "es"
      ],
      [
        "Ġestabele",
        "ci"
      ],
      [
        "v",
        "es"
      ],
      [
        "ti",
        "tu"
      ],
      [
        "1",
        "6"
      ],
      [
        "Ġle",
        "g"
      ],
      [
        "3",
        "9"
      ],
      [
        "fi",
        "caÃ§Ã£o"
      ],
      [
        "Ġrecebi",
        "mento"
      ],
      [
        "Ġ",
        "us"
      ],
      [
        "men",
        "taÃ§Ã£o"
      ],
      [
        "a",
        "da"
      ],
      [
        "es",
        "te"
      ],
      [
        "de",
        "ncia"
      ],
      [
        "Ġb",
        "o"
      ],
      [
        "in",
        "s"
      ],
      [
        "si",
        "de"
      ],
      [
        "2",
        "2"
      ],
      [
        "7",
        "5"
      ],
      [
        "li",
        "v"
      ],
      [
        "Ġloca",
        "l"
      ],
      [
        "Ġservi",
        "Ã§o"
      ],
      [
        "Ġi",
        "mp"
      ],
      [
        "qu",
        "e"
      ],
      [
        "Ġex",
        "tra"
      ],
      [
        "Ġde",
        "man"
      ],
      [
        "ess",
        "o"
      ],
      [
        "ĠÃ",
        "¡"
      ],
      [
        "Ġt",
        "Ã©"
      ],
      [
        "Ġno",
        "ve"
      ],
      [
        "en",
        "a"
      ],
      [
        "Ġs",
        "anta"
      ],
      [
        "ri",
        "as"
      ],
      [
        "Ġter",
        "mos"
      ],
      [
        "Ġtelef",
        "one"
      ],
      [
        "Ġp",
        "la"
      ],
      [
        "Ġpubli",
        "ca"
      ],
      [
        "Ġj",
        "o"
      ],
      [
        "en",
        "sa"
      ],
      [
        "Ġse",
        "de"
      ],
      [
        "Ġman",
        "u"
      ],
      [
        "Ġmater",
        "ial"
      ],
      [
        "ten",
        "ta"
      ],
      [
        "3",
        "5"
      ],
      [
        "i",
        "r"
      ],
      [
        "i",
        "va"
      ],
      [
        "Ġm",
        "in"
      ],
      [
        "Ġn",
        "or"
      ],
      [
        "re",
        "nte"
      ],
      [
        "Ġcons",
        "ta"
      ],
      [
        "p",
        "lo"
      ],
      [
        "Ġpre",
        "si"
      ],
      [
        "Ġc",
        "as"
      ],
      [
        "Ġcomuni",
        "ca"
      ],
      [
        "9",
        "00"
      ],
      [
        "Ġbras",
        "il"
      ],
      [
        "Ġven",
        "ce"
      ],
      [
        "Ġ",
        "k"
      ],
      [
        "g",
        "ia"
      ],
      [
        "3",
        "7"
      ],
      [
        "Ġcre",
        "dencia"
      ],
      [
        "c",
        "er"
      ],
      [
        "Ġlo",
        "te"
      ],
      [
        "Ġqua",
        "nt"
      ],
      [
        "m",
        "s"
      ],
      [
        "g",
        "ua"
      ],
      [
        "nc",
        "p"
      ],
      [
        "cre",
        "to"
      ],
      [
        "dena",
        "dor"
      ],
      [
        "Ġb",
        "ar"
      ],
      [
        "io",
        "res"
      ],
      [
        "Ġpresi",
        "dente"
      ],
      [
        "x",
        "i"
      ],
      [
        "c",
        "ni"
      ],
      [
        "4",
        "7"
      ],
      [
        "Ġc",
        "p"
      ],
      [
        "Ġo",
        "fi"
      ],
      [
        "rib",
        "ui"
      ],
      [
        "compras",
        "net"
      ],
      [
        "2",
        "8"
      ],
      [
        "Ġestabeleci",
        "das"
      ],
      [
        "Ġdes",
        "pes"
      ],
      [
        "Ġmanu",
        "tenÃ§Ã£o"
      ],
      [
        "Ġj",
        "ulga"
      ],
      [
        "Ġjos",
        "Ã©"
      ],
      [
        "l",
        "l"
      ],
      [
        "*",
        "*"
      ],
      [
        "1",
        "9"
      ],
      [
        "Ġadjudi",
        "caÃ§Ã£o"
      ],
      [
        "4",
        "6"
      ],
      [
        "Ġfu",
        "tura"
      ],
      [
        "Ġdisp",
        "ensa"
      ],
      [
        "Ġrealiza",
        "rÃ¡"
      ],
      [
        "ni",
        "o"
      ],
      [
        "t",
        "Ã£o"
      ],
      [
        "1",
        "8"
      ],
      [
        "ra",
        "do"
      ],
      [
        "ĠtÃ©",
        "cni"
      ],
      [
        "Ġp",
        "esso"
      ],
      [
        "de",
        "compras"
      ],
      [
        "5",
        "5"
      ],
      [
        "t",
        "ri"
      ],
      [
        "d",
        "f"
      ],
      [
        "Ġes",
        "co"
      ],
      [
        "publi",
        "cas"
      ],
      [
        "2",
        "7"
      ],
      [
        "t",
        "ina"
      ],
      [
        "Ġlicita",
        "cao"
      ],
      [
        "v",
        "is"
      ],
      [
        "Ġcu",
        "jo"
      ],
      [
        "v",
        "al"
      ],
      [
        "g",
        "em"
      ],
      [
        "rÃ",
        "©"
      ],
      [
        "decompras",
        "publicas"
      ],
      [
        "c",
        "h"
      ],
      [
        "z",
        "entos"
      ],
      [
        "Ġo",
        "liv"
      ],
      [
        "1",
        "7"
      ],
      [
        "Ġus",
        "o"
      ],
      [
        "ca",
        "r"
      ],
      [
        "2",
        "0"
      ],
      [
        "Ġextra",
        "to"
      ],
      [
        "co",
        "n"
      ],
      [
        "Ġm",
        "i"
      ],
      [
        "Ġcomp",
        "le"
      ],
      [
        "Ġpa",
        "ul"
      ],
      [
        "portal",
        "decompraspublicas"
      ],
      [
        "Ġoliv",
        "eira"
      ],
      [
        "2",
        "9"
      ],
      [
        "Ã¡",
        "ria"
      ],
      [
        "Ġfun",
        "da"
      ],
      [
        "Ġpres",
        "ente"
      ],
      [
        "Ġjulga",
        "mento"
      ],
      [
        "Ġa",
        "di"
      ],
      [
        "Ġ2",
        "0"
      ],
      [
        "in",
        "o"
      ],
      [
        "Ġp",
        "i"
      ],
      [
        "Ġ0",
        "5"
      ],
      [
        "Ġt",
        "ra"
      ],
      [
        "Ġaten",
        "dimento"
      ],
      [
        "Ġs",
        "et"
      ],
      [
        "res",
        "enta"
      ],
      [
        "Ġsu",
        "as"
      ],
      [
        "8",
        "8"
      ],
      [
        "1",
        "4"
      ],
      [
        "on",
        "al"
      ],
      [
        "p",
        "t"
      ],
      [
        "Ġpoder",
        "Ã£o"
      ],
      [
        "Ġcha",
        "ma"
      ],
      [
        "Ġde",
        "creto"
      ],
      [
        "o",
        "do"
      ],
      [
        "Ġso",
        "u"
      ],
      [
        "Ġi",
        "i"
      ],
      [
        "Ġob",
        "ti"
      ],
      [
        "por",
        "te"
      ],
      [
        "Ġqua",
        "tro"
      ],
      [
        "Ġofi",
        "cial"
      ],
      [
        "u",
        "m"
      ],
      [
        "p",
        "r"
      ],
      [
        "ha",
        "ria"
      ],
      [
        "Ġper",
        "ÃŃ"
      ],
      [
        "a",
        "res"
      ],
      [
        "Ġen",
        "gen"
      ],
      [
        "Ġpro",
        "jet"
      ],
      [
        "Ġso",
        "cial"
      ],
      [
        "Ġv",
        "e"
      ],
      [
        "an",
        "c"
      ],
      [
        "Ġex",
        "ig"
      ],
      [
        "di",
        "o"
      ],
      [
        "Ġsou",
        "za"
      ],
      [
        "Ġa",
        "ta"
      ],
      [
        "Ġa",
        "b"
      ],
      [
        "n",
        "do"
      ],
      [
        "Ġd",
        "ist"
      ],
      [
        "Ġ",
        ","
      ],
      [
        "Ġpoder",
        "Ã¡"
      ],
      [
        "Ġexig",
        "Ãªncias"
      ],
      [
        "po",
        "lis"
      ],
      [
        "Ġdo",
        "cu"
      ],
      [
        "s",
        "er"
      ],
      [
        "rs",
        "os"
      ],
      [
        "Ġengen",
        "haria"
      ],
      [
        "f",
        "a"
      ],
      [
        "l",
        "u"
      ],
      [
        "Ġre",
        "p"
      ],
      [
        "Ġcons",
        "ulta"
      ],
      [
        "Ġrealiza",
        "Ã§Ã£o"
      ],
      [
        "ĠperÃŃ",
        "odo"
      ],
      [
        "en",
        "do"
      ],
      [
        "Ġc",
        "er"
      ],
      [
        "Ġdes",
        "tina"
      ],
      [
        "Ġn",
        "as"
      ],
      [
        "Ġ2",
        "9"
      ],
      [
        "Ġset",
        "or"
      ],
      [
        "Ã",
        "´ni"
      ],
      [
        "Ġcredencia",
        "mento"
      ],
      [
        "re",
        "ncia"
      ],
      [
        "Ġsegu",
        "i"
      ],
      [
        "as",
        "e"
      ],
      [
        "qu",
        "a"
      ],
      [
        "4",
        "9"
      ],
      [
        "g",
        "mail"
      ],
      [
        "Ġ0",
        "6"
      ],
      [
        "Ã©",
        "rio"
      ],
      [
        "Ġref",
        "e"
      ],
      [
        "Ġ",
        "w"
      ],
      [
        "ĠÃ",
        "º"
      ],
      [
        "5",
        "6"
      ],
      [
        "202",
        "2"
      ],
      [
        "Ġsup",
        "ra"
      ],
      [
        "8",
        "7"
      ],
      [
        "Ġdespes",
        "as"
      ],
      [
        "5",
        "0"
      ],
      [
        "Ġa",
        "ra"
      ],
      [
        "Ġins",
        "titu"
      ],
      [
        "c",
        "ha"
      ],
      [
        "00",
        "00"
      ],
      [
        "3",
        "3"
      ],
      [
        "Ġh",
        "a"
      ],
      [
        "Ġper",
        "man"
      ],
      [
        "Ġvis",
        "ando"
      ],
      [
        "e",
        "ni"
      ],
      [
        "Ġs",
        "us"
      ],
      [
        "Ġanex",
        "o"
      ],
      [
        "Ġmes",
        "es"
      ],
      [
        "Ġquant",
        "idades"
      ],
      [
        "Ġoi",
        "to"
      ],
      [
        "Ġju",
        "rÃŃ"
      ],
      [
        "Ġpaul",
        "o"
      ],
      [
        "Ġor",
        "denador"
      ],
      [
        "Ġvig",
        "Ãªncia"
      ],
      [
        "Ġpropos",
        "ta"
      ],
      [
        "Ġj",
        "an"
      ],
      [
        "rÃ",
        "ª"
      ],
      [
        "ti",
        "vos"
      ],
      [
        "plo",
        "mas"
      ],
      [
        "8",
        "9"
      ],
      [
        "p",
        "en"
      ],
      [
        "Ġpro",
        "du"
      ],
      [
        "Ã¡",
        "s"
      ],
      [
        "Ġob",
        "ra"
      ],
      [
        "Ġba",
        "ir"
      ],
      [
        "Ġd",
        "u"
      ],
      [
        "cl",
        "us"
      ],
      [
        "Ġn",
        "este"
      ],
      [
        "Ġsecre",
        "tÃ¡rio"
      ],
      [
        "Ġsup",
        "eri"
      ],
      [
        "5",
        "7"
      ],
      [
        "d",
        "ra"
      ],
      [
        "Ġconstru",
        "Ã§Ã£o"
      ],
      [
        "ta",
        "mento"
      ],
      [
        "Ġu",
        "m"
      ],
      [
        "Ġinscri",
        "ta"
      ],
      [
        "i",
        "ta"
      ],
      [
        "Ġfun",
        "do"
      ],
      [
        "rin",
        "ta"
      ],
      [
        "r",
        "j"
      ],
      [
        "Ġma",
        "ria"
      ],
      [
        "m",
        "es"
      ],
      [
        "Ġbair",
        "ro"
      ],
      [
        "Ġse",
        "te"
      ],
      [
        "v",
        "as"
      ],
      [
        "pa",
        "r"
      ],
      [
        "3",
        "2"
      ],
      [
        "liza",
        "Ã§Ã£o"
      ],
      [
        "8",
        "6"
      ],
      [
        "Ġli",
        "n"
      ],
      [
        "in",
        "h"
      ],
      [
        "Ġrecu",
        "rsos"
      ],
      [
        "Ã§",
        "as"
      ],
      [
        "ÃŃ",
        "cul"
      ],
      [
        "d",
        "ro"
      ],
      [
        "ra",
        "dos"
      ],
      [
        "00",
        "0001"
      ],
      [
        "Ġcon",
        "he"
      ],
      [
        "Ġp",
        "os"
      ],
      [
        "Ã¡",
        "rios"
      ],
      [
        "Ġdi",
        "plomas"
      ],
      [
        "Ġse",
        "is"
      ],
      [
        "Ġc",
        "ul"
      ],
      [
        "qu",
        "enta"
      ],
      [
        "et",
        "ro"
      ],
      [
        "Ġce",
        "p"
      ],
      [
        "l",
        "os"
      ],
      [
        "ra",
        "Ã§Ãµes"
      ],
      [
        "2",
        "01"
      ],
      [
        "el",
        "o"
      ],
      [
        "bi",
        "lidade"
      ],
      [
        "Ġve",
        "ÃŃcul"
      ],
      [
        "ta",
        "forma"
      ],
      [
        "Ġ2",
        "8"
      ],
      [
        "Ġo",
        "n"
      ],
      [
        "Ġins",
        "tal"
      ],
      [
        "Ġuni",
        "dade"
      ],
      [
        "en",
        "e"
      ],
      [
        "Ġregi",
        "onal"
      ],
      [
        "Ġsupra",
        "cita"
      ],
      [
        "lo",
        "gia"
      ],
      [
        "ver",
        "si"
      ],
      [
        "Ġesco",
        "la"
      ],
      [
        "et",
        "o"
      ],
      [
        "Ġf",
        "in"
      ],
      [
        "d",
        "ri"
      ],
      [
        "Ġ3",
        "1"
      ],
      [
        "Ġpla",
        "taforma"
      ],
      [
        "rÃª",
        "s"
      ],
      [
        "ĠpÃºbli",
        "cas"
      ],
      [
        "Ġdispos",
        "iÃ§Ã£o"
      ],
      [
        "Ġcomple",
        "menta"
      ],
      [
        "j",
        "a"
      ],
      [
        "4",
        "0"
      ],
      [
        "ta",
        "r"
      ],
      [
        "Ġm",
        "Ã©"
      ],
      [
        "Ġcomer",
        "cio"
      ],
      [
        "Ġc",
        "l"
      ],
      [
        "Ġin",
        "ci"
      ],
      [
        "Ġins",
        "tru"
      ],
      [
        "Ġcul",
        "tura"
      ],
      [
        "Ġconsta",
        "ntes"
      ],
      [
        "Ġuni",
        "dades"
      ],
      [
        "Ġass",
        "ina"
      ],
      [
        "Ġa",
        "m"
      ],
      [
        "ra",
        "da"
      ],
      [
        "Ġme",
        "dica"
      ],
      [
        "Ġdes",
        "te"
      ],
      [
        "Ġres",
        "ulta"
      ],
      [
        "to",
        "ra"
      ],
      [
        "Ġav",
        "eni"
      ],
      [
        "os",
        "a"
      ],
      [
        "ti",
        "ma"
      ],
      [
        "Ġdes",
        "cri"
      ],
      [
        "c",
        "la"
      ],
      [
        "p",
        "ncp"
      ],
      [
        "Ġf",
        "ran"
      ],
      [
        "Ġcontrata",
        "nte"
      ],
      [
        "6",
        "7"
      ],
      [
        "o",
        "u"
      ],
      [
        "Ġuni",
        "versi"
      ],
      [
        "Ġi",
        "ta"
      ],
      [
        "Ġcp",
        "l"
      ],
      [
        "l",
        "h"
      ],
      [
        "ta",
        "is"
      ],
      [
        "8",
        "5"
      ],
      [
        "Ġre",
        "la"
      ],
      [
        "b",
        "ll"
      ],
      [
        "Ġno",
        "va"
      ],
      [
        "Ġsal",
        "a"
      ],
      [
        "Ġconhe",
        "cimento"
      ],
      [
        "Ġaveni",
        "da"
      ],
      [
        "ni",
        "co"
      ],
      [
        "Ġma",
        "iores"
      ],
      [
        "Ġge",
        "ral"
      ],
      [
        "Ġin",
        "f"
      ],
      [
        "ma",
        "r"
      ],
      [
        "Ġg",
        "es"
      ],
      [
        "tÃ¡",
        "ria"
      ],
      [
        "Ġdire",
        "tor"
      ],
      [
        "Ġpro",
        "ce"
      ],
      [
        "za",
        "Ã§Ã£o"
      ],
      [
        "Ġdi",
        "ver"
      ],
      [
        "Ġb",
        "Ã¡"
      ],
      [
        "p",
        "p"
      ],
      [
        "bi",
        "li"
      ],
      [
        "Ġc",
        "r"
      ],
      [
        "p",
        "re"
      ],
      [
        "re",
        "ci"
      ],
      [
        "Ġr",
        "u"
      ],
      [
        "Ġob",
        "ras"
      ],
      [
        "ist",
        "Ãªncia"
      ],
      [
        "Ġcor",
        "re"
      ],
      [
        "e",
        "za"
      ],
      [
        "s",
        "ta"
      ],
      [
        "gra",
        "ma"
      ],
      [
        "s",
        "on"
      ],
      [
        "Ġser",
        "Ã£o"
      ],
      [
        "Ġvence",
        "dora"
      ],
      [
        "v",
        "enta"
      ],
      [
        "Ġleg",
        "al"
      ],
      [
        "el",
        "ho"
      ],
      [
        "Ġinci",
        "so"
      ],
      [
        "Ġresulta",
        "do"
      ],
      [
        "Ġse",
        "g"
      ],
      [
        "Â",
        "ª"
      ],
      [
        "/",
        "."
      ],
      [
        "Ġli",
        "v"
      ],
      [
        "ren",
        "ta"
      ],
      [
        "Ġ9",
        "001"
      ],
      [
        "Ġe",
        "di"
      ],
      [
        "Ġa",
        "po"
      ],
      [
        "gov",
        "er"
      ],
      [
        "Ġcin",
        "quenta"
      ],
      [
        ")",
        ";"
      ],
      [
        "p",
        "m"
      ],
      [
        "ber",
        "tura"
      ],
      [
        "Ġperman",
        "ente"
      ],
      [
        "Ġjan",
        "eiro"
      ],
      [
        "4",
        "8"
      ],
      [
        "Ġfo",
        "i"
      ],
      [
        "Ġpubli",
        "caÃ§Ã£o"
      ],
      [
        "9",
        "3"
      ],
      [
        "Ġp",
        "ri"
      ],
      [
        "Ġa",
        "nt"
      ],
      [
        "Ġrefe",
        "rente"
      ],
      [
        "Ġrealiza",
        "r"
      ],
      [
        "4",
        "3"
      ],
      [
        "Ġ3",
        "6"
      ],
      [
        "2",
        "3"
      ],
      [
        "9",
        "0"
      ],
      [
        "Ġ",
        "/"
      ],
      [
        "Ġno",
        "vo"
      ],
      [
        "Ġobjet",
        "i"
      ],
      [
        "Ġpres",
        "en"
      ],
      [
        "rÃ",
        "³"
      ],
      [
        "ribui",
        "Ã§Ãµes"
      ],
      [
        "Ġassina",
        "tura"
      ],
      [
        "Ġpesso",
        "a"
      ],
      [
        "an",
        "a"
      ],
      [
        "ci",
        "os"
      ],
      [
        "Ġro",
        "dri"
      ],
      [
        "ci",
        "ma"
      ],
      [
        "de",
        "i"
      ],
      [
        "Ġg",
        "ra"
      ],
      [
        "Ġalte",
        "raÃ§Ãµes"
      ],
      [
        "r",
        "n"
      ],
      [
        "i",
        "dade"
      ],
      [
        "Ġ",
        "ten"
      ],
      [
        "Ġpor",
        "taria"
      ],
      [
        "9",
        "7"
      ],
      [
        "Ġes",
        "tÃ¡"
      ],
      [
        "Ġmedica",
        "mentos"
      ],
      [
        "ĠbÃ¡",
        "si"
      ],
      [
        "Ġsus",
        "pen"
      ],
      [
        "Ġn",
        "Ã£o"
      ],
      [
        "Ġpublica",
        "da"
      ],
      [
        "re",
        "a"
      ],
      [
        "Ġa",
        "le"
      ],
      [
        "Ġar",
        "ti"
      ],
      [
        "Ġou",
        "t"
      ],
      [
        "ul",
        "a"
      ],
      [
        "ta",
        "me"
      ],
      [
        "Ġesta",
        "rÃ¡"
      ],
      [
        "Ġjo",
        "Ã£o"
      ],
      [
        "g",
        "e"
      ],
      [
        "Ġelet",
        "ro"
      ],
      [
        "Ġass",
        "istÃªncia"
      ],
      [
        "Ġcin",
        "co"
      ],
      [
        "Ġdeman",
        "das"
      ],
      [
        "Ġsu",
        "b"
      ],
      [
        "Ġpresen",
        "cial"
      ],
      [
        "h",
        "s"
      ],
      [
        "Ġno",
        "venta"
      ],
      [
        "Ġt",
        "re"
      ],
      [
        "Ġp",
        "r"
      ],
      [
        "Ġs",
        "ul"
      ],
      [
        "Ġdo",
        "is"
      ],
      [
        "Ġa",
        "cor"
      ],
      [
        "c",
        "ent"
      ],
      [
        "Ġvi",
        "nte"
      ],
      [
        "5",
        "1"
      ],
      [
        "ra",
        "es"
      ],
      [
        "ÃŃ",
        "ti"
      ],
      [
        "Ġg",
        "a"
      ],
      [
        "Ġapo",
        "io"
      ],
      [
        "Ġcer",
        "tame"
      ],
      [
        "Ġcar",
        "los"
      ],
      [
        "Ġacor",
        "do"
      ],
      [
        "Ġa",
        "cima"
      ],
      [
        "Ġrealiza",
        "da"
      ],
      [
        "Ġadi",
        "tivo"
      ],
      [
        "ĠdisponÃŃ",
        "veis"
      ],
      [
        "ix",
        "a"
      ],
      [
        "Ã©",
        "m"
      ],
      [
        "Ġat",
        "ribuiÃ§Ãµes"
      ],
      [
        "x",
        "x"
      ],
      [
        "b",
        "nc"
      ],
      [
        "is",
        "la"
      ],
      [
        "licita",
        "net"
      ],
      [
        "t",
        "in"
      ],
      [
        "vo",
        "l"
      ],
      [
        "Ġsi",
        "tes"
      ],
      [
        "v",
        "il"
      ],
      [
        "Ġes",
        "tima"
      ],
      [
        "Ġc",
        "ri"
      ],
      [
        "Ġpro",
        "f"
      ],
      [
        "Ġb",
        "em"
      ],
      [
        "Ġex",
        "clus"
      ],
      [
        "Ġempres",
        "as"
      ],
      [
        "Ġu",
        "r"
      ],
      [
        "Ġsecre",
        "tÃ¡ria"
      ],
      [
        "ta",
        "rias"
      ],
      [
        "Ġlin",
        "k"
      ],
      [
        "Ġ9",
        "000"
      ],
      [
        "Ġ3",
        "5"
      ],
      [
        "tru",
        "tura"
      ],
      [
        "ĠÃ",
        "³"
      ],
      [
        "Ġcontra",
        "tos"
      ],
      [
        "Ġprodu",
        "tos"
      ],
      [
        "9",
        "6"
      ],
      [
        "Ġsupracita",
        "da"
      ],
      [
        "4",
        "1"
      ],
      [
        "b",
        "e"
      ],
      [
        "Ġde",
        "par"
      ],
      [
        "Ġpro",
        "cess"
      ],
      [
        "Ã´ni",
        "o"
      ],
      [
        "8",
        "0"
      ],
      [
        "j",
        "u"
      ],
      [
        "or",
        "ia"
      ],
      [
        "Ġj",
        "a"
      ],
      [
        "Ġt",
        "rinta"
      ],
      [
        "Ġoi",
        "tenta"
      ],
      [
        "ĠveÃŃcul",
        "os"
      ],
      [
        "Ġap",
        "li"
      ],
      [
        "7",
        "7"
      ],
      [
        "c",
        "ei"
      ],
      [
        "re",
        "m"
      ],
      [
        "Ġsi",
        "tu"
      ],
      [
        "p",
        "b"
      ],
      [
        "Ġc",
        "Ã³"
      ],
      [
        "nt",
        "en"
      ],
      [
        "Ġcomunica",
        "mos"
      ],
      [
        ".",
        ":"
      ],
      [
        "00",
        "6"
      ],
      [
        "side",
        "c"
      ],
      [
        "Ġparti",
        "cip"
      ],
      [
        "Ã³",
        "gi"
      ],
      [
        "Ġsuspen",
        "sÃ£o"
      ],
      [
        "Ġ",
        "tem"
      ],
      [
        "Ġg",
        "ran"
      ],
      [
        "Ġsecre",
        "tarias"
      ],
      [
        "Ġdiver",
        "s"
      ],
      [
        "m",
        "t"
      ],
      [
        "Ġre",
        "so"
      ],
      [
        "do",
        "res"
      ],
      [
        "ni",
        "a"
      ],
      [
        "Ġli",
        "ma"
      ],
      [
        "r",
        "so"
      ],
      [
        "Ġsess",
        "enta"
      ],
      [
        "Ġdeman",
        "da"
      ],
      [
        "c",
        "no"
      ],
      [
        "Ġp",
        "lan"
      ],
      [
        "Ġor",
        "Ã§a"
      ],
      [
        "Ġe",
        "d"
      ],
      [
        "7",
        "6"
      ],
      [
        "h",
        "ia"
      ],
      [
        "Ġs",
        "ÃŃti"
      ],
      [
        "ÃŃ",
        "s"
      ],
      [
        "Ġso",
        "licita"
      ],
      [
        "Ġf",
        "one"
      ],
      [
        "Ġcon",
        "side"
      ],
      [
        "Ġqua",
        "renta"
      ],
      [
        "Ġfer",
        "reira"
      ],
      [
        "Ġleg",
        "isla"
      ],
      [
        "Ġrea",
        "bertura"
      ],
      [
        "t",
        "re"
      ],
      [
        "an",
        "e"
      ],
      [
        "h",
        "Ã£o"
      ],
      [
        "te",
        "is"
      ],
      [
        "Ġinte",
        "gra"
      ],
      [
        "ci",
        "s"
      ],
      [
        "un",
        "da"
      ],
      [
        "Ġalte",
        "raÃ§Ã£o"
      ],
      [
        "Ġp",
        "Ã¡"
      ],
      [
        "Ġa",
        "co"
      ],
      [
        "Ġdepar",
        "tamento"
      ],
      [
        "8",
        "4"
      ],
      [
        "Ġaber",
        "to"
      ],
      [
        "Ġpro",
        "grama"
      ],
      [
        "Ġl",
        "anc"
      ],
      [
        "Ġtrans",
        "porte"
      ],
      [
        "9",
        "5"
      ],
      [
        "r",
        "cio"
      ],
      [
        "s",
        "c"
      ],
      [
        "v",
        "ia"
      ],
      [
        "Ġ",
        "tu"
      ],
      [
        "Ġco",
        "sta"
      ],
      [
        "ga",
        "Ã§Ã£o"
      ],
      [
        "Ġre",
        "de"
      ],
      [
        "Ġde",
        "ver"
      ],
      [
        "ra",
        "m"
      ],
      [
        "Ġdes",
        "en"
      ],
      [
        "Ġp",
        "ena"
      ],
      [
        "Ġse",
        "u"
      ],
      [
        "gu",
        "es"
      ],
      [
        "ĠjurÃŃ",
        "dica"
      ],
      [
        "vi",
        "mento"
      ],
      [
        "Ã¢",
        "n"
      ],
      [
        "ci",
        "n"
      ],
      [
        "ri",
        "l"
      ],
      [
        "Ġsuperi",
        "nten"
      ],
      [
        "Ġten",
        "do"
      ],
      [
        "Ġt",
        "rÃªs"
      ],
      [
        "ĠÃº",
        "teis"
      ],
      [
        "Ġle",
        "ga"
      ],
      [
        "Ġchama",
        "mento"
      ],
      [
        "Ġes",
        "p"
      ],
      [
        "Ġ3",
        "4"
      ],
      [
        "Ġal",
        "ves"
      ],
      [
        "er",
        "os"
      ],
      [
        "Ġlanc",
        "es"
      ],
      [
        "Ġpe",
        "reira"
      ],
      [
        "Ġfer",
        "n"
      ],
      [
        "Ġse",
        "m"
      ],
      [
        "Ġcontrata",
        "Ã§Ãµes"
      ],
      [
        "p",
        "ro"
      ],
      [
        "or",
        "i"
      ],
      [
        "Ġb",
        "ase"
      ],
      [
        "Ġali",
        "ment"
      ],
      [
        "Ġdesen",
        "vol"
      ],
      [
        "\"",
        ","
      ],
      [
        "Ġ",
        "gover"
      ],
      [
        "Ġ2",
        "01"
      ],
      [
        "00",
        "4"
      ],
      [
        "an",
        "o"
      ],
      [
        "a",
        "dos"
      ],
      [
        "l",
        "ha"
      ],
      [
        "Ġh",
        "i"
      ],
      [
        "Ġ3",
        "3"
      ],
      [
        "Ġfi",
        "ca"
      ],
      [
        "Ġp",
        "as"
      ],
      [
        "Ġcon",
        "ta"
      ],
      [
        "Ġi",
        "d"
      ],
      [
        "i",
        "Ã§Ãµes"
      ],
      [
        "Ġcomplementa",
        "r"
      ],
      [
        "Ġges",
        "tÃ£o"
      ],
      [
        "Ġlega",
        "is"
      ],
      [
        "e",
        "b"
      ],
      [
        "liza",
        "do"
      ],
      [
        "Ġgo",
        "i"
      ],
      [
        "l",
        "Ã³gi"
      ],
      [
        "v",
        "ando"
      ],
      [
        "Ġreti",
        "ficaÃ§Ã£o"
      ],
      [
        "Ġa",
        "na"
      ],
      [
        "Ġ",
        "rib"
      ],
      [
        "Ġfunda",
        "mento"
      ],
      [
        "Ġdocu",
        "mentos"
      ],
      [
        "Ġm",
        "Ã£o"
      ],
      [
        "Ġb",
        "an"
      ],
      [
        "vi",
        "mentaÃ§Ã£o"
      ],
      [
        "Ġregist",
        "rados"
      ],
      [
        "Ġcontrata",
        "da"
      ],
      [
        "ĠpÃ¡",
        "g"
      ],
      [
        "Ġse",
        "Ã§Ã£o"
      ],
      [
        "Ġv",
        "ia"
      ],
      [
        "Ġap",
        "resenta"
      ],
      [
        "u",
        "r"
      ],
      [
        "Ġs",
        "ua"
      ],
      [
        "Ġuni",
        "Ã£o"
      ],
      [
        "Ġnor",
        "te"
      ],
      [
        "ĠÃ",
        "Ń"
      ],
      [
        "Ã³",
        "polis"
      ],
      [
        "Ġprojet",
        "o"
      ],
      [
        "Ġ",
        "br"
      ],
      [
        "ru",
        "z"
      ],
      [
        "Ġestima",
        "do"
      ],
      [
        "ÃŃ",
        "cios"
      ],
      [
        "Ġgran",
        "de"
      ],
      [
        "Ġde",
        "z"
      ],
      [
        "cor",
        "re"
      ],
      [
        "Ġon",
        "de"
      ],
      [
        "ci",
        "e"
      ],
      [
        "ri",
        "to"
      ],
      [
        "Ġfa",
        "rÃ¡"
      ],
      [
        "cion",
        "ais"
      ],
      [
        "Ġarti",
        "go"
      ],
      [
        "4",
        "2"
      ],
      [
        "Ġseg",
        "unda"
      ],
      [
        "Ġm",
        "Ã¡"
      ],
      [
        "9",
        "8"
      ],
      [
        "Ġo",
        "pe"
      ],
      [
        "Ġcon",
        "vo"
      ],
      [
        "Ġinstal",
        "aÃ§Ã£o"
      ],
      [
        "Ġcri",
        "t"
      ],
      [
        "g",
        "na"
      ],
      [
        "Ġse",
        "x"
      ],
      [
        "Ġen",
        "s"
      ],
      [
        "ta",
        "da"
      ],
      [
        "Ġju",
        "nto"
      ],
      [
        "el",
        "a"
      ],
      [
        "Ġ3",
        "2"
      ],
      [
        "ber",
        "to"
      ],
      [
        "Ġur",
        "b"
      ],
      [
        "m",
        "Ã©"
      ],
      [
        "Ġens",
        "ino"
      ],
      [
        "do",
        "ze"
      ],
      [
        "Ġdesenvol",
        "vimento"
      ],
      [
        "Ġrep",
        "resenta"
      ],
      [
        "ui",
        "z"
      ],
      [
        "Ġse",
        "tenta"
      ],
      [
        "Ġin",
        "d"
      ],
      [
        "Ġma",
        "is"
      ],
      [
        "6",
        "0"
      ],
      [
        "Ġco",
        "or"
      ],
      [
        "en",
        "o"
      ],
      [
        "Ġmin",
        "ist"
      ],
      [
        "Ġsegui",
        "ntes"
      ],
      [
        "li",
        "n"
      ],
      [
        "ran",
        "do"
      ],
      [
        "Ãª",
        "nio"
      ],
      [
        "Ġfran",
        "cis"
      ],
      [
        "Ġobjeti",
        "vando"
      ],
      [
        "p",
        "ia"
      ],
      [
        "il",
        "a"
      ],
      [
        "Ġ3",
        "7"
      ],
      [
        "is",
        "ta"
      ],
      [
        "Ġpa",
        "vimentaÃ§Ã£o"
      ],
      [
        "en",
        "da"
      ],
      [
        "nte",
        "gra"
      ],
      [
        "Ġant",
        "Ã´nio"
      ],
      [
        "Ġqu",
        "al"
      ],
      [
        "Ã³",
        "s"
      ],
      [
        "ĠsÃŃti",
        "o"
      ],
      [
        "Ġsex",
        "ta"
      ],
      [
        "r",
        "Ã£o"
      ],
      [
        "202",
        "5"
      ],
      [
        "Ġtra",
        "bal"
      ],
      [
        "Ġrodri",
        "gues"
      ],
      [
        "u",
        "ÃŃ"
      ],
      [
        "va",
        "do"
      ],
      [
        "g",
        "as"
      ],
      [
        "pe",
        "di"
      ],
      [
        "Ãªn",
        "eros"
      ],
      [
        "Ġa",
        "cess"
      ],
      [
        "Ġdes",
        "ta"
      ],
      [
        "Ġte",
        "cno"
      ],
      [
        "8",
        "1"
      ],
      [
        "t",
        "rans"
      ],
      [
        "Ġa",
        "ba"
      ],
      [
        "Ġcons",
        "elho"
      ],
      [
        "Ġes",
        "cla"
      ],
      [
        "Ġto",
        "dos"
      ],
      [
        "ua",
        "r"
      ],
      [
        "in",
        "do"
      ],
      [
        "Ġg",
        "Ãªneros"
      ],
      [
        "fei",
        "ra"
      ],
      [
        "Ġexclus",
        "iva"
      ],
      [
        "Ġdestina",
        "dos"
      ],
      [
        "Ġproce",
        "dimento"
      ],
      [
        "c",
        "ho"
      ],
      [
        "Ġloca",
        "lizada"
      ],
      [
        "Ġhospital",
        "ares"
      ],
      [
        "Ġaliment",
        "ÃŃcios"
      ],
      [
        "Ġa",
        "mp"
      ],
      [
        "Ġex",
        "pedi"
      ],
      [
        "ĠÃŃ",
        "ntegra"
      ],
      [
        "Ġre",
        "forma"
      ],
      [
        "Ġfi",
        "m"
      ],
      [
        "Ġfrancis",
        "co"
      ],
      [
        "l",
        "eto"
      ],
      [
        "da",
        "r"
      ],
      [
        "Ġ9",
        "002"
      ],
      [
        "Ġpo",
        "de"
      ],
      [
        "Ġdispos",
        "to"
      ],
      [
        "8",
        "2"
      ],
      [
        "8",
        "3"
      ],
      [
        "Ġobti",
        "das"
      ],
      [
        "ĠmÃ©",
        "di"
      ],
      [
        "9",
        "2"
      ],
      [
        "Ġcrit",
        "Ã©rio"
      ],
      [
        "a",
        "m"
      ],
      [
        "Ã¢",
        "ncia"
      ],
      [
        "es",
        "a"
      ],
      [
        "Ġm",
        "g"
      ],
      [
        "Ġin",
        "e"
      ],
      [
        "Ġmunicip",
        "ais"
      ],
      [
        "Ġprojet",
        "os"
      ],
      [
        "Ġci",
        "dade"
      ],
      [
        "Ġa",
        "pa"
      ],
      [
        "Ġme",
        "di"
      ],
      [
        "Ġadjudi",
        "ca"
      ],
      [
        ".",
        ","
      ],
      [
        "6",
        "5"
      ],
      [
        "Ġhospital",
        "ar"
      ],
      [
        "Ġchama",
        "da"
      ],
      [
        "6",
        "3"
      ],
      [
        "mi",
        "dade"
      ],
      [
        "b",
        "ri"
      ],
      [
        "m",
        "ei"
      ],
      [
        "Ġa",
        "ma"
      ],
      [
        "Ġinf",
        "raes"
      ],
      [
        "trans",
        "pa"
      ],
      [
        "Ġs",
        "en"
      ],
      [
        "dia",
        "nte"
      ],
      [
        "Ġreti",
        "rada"
      ],
      [
        "Ġdist",
        "ribui"
      ],
      [
        "Ġha",
        "bili"
      ],
      [
        "Ġau",
        "tor"
      ],
      [
        "Ġliv",
        "ro"
      ],
      [
        "Ġinfraes",
        "trutura"
      ],
      [
        "m",
        "Ã¡"
      ],
      [
        "Ġl",
        "uiz"
      ],
      [
        "Ġref",
        "eri"
      ],
      [
        "Ġcontrata",
        "do"
      ],
      [
        "ĠÃ³",
        "r"
      ],
      [
        "Ġc",
        "el"
      ],
      [
        "Ġregist",
        "ros"
      ],
      [
        "Ġp",
        "rÃ©"
      ],
      [
        "g",
        "re"
      ],
      [
        "Ġp",
        "b"
      ],
      [
        "et",
        "i"
      ],
      [
        "Ġcomp",
        "leto"
      ],
      [
        "ti",
        "co"
      ],
      [
        "Ġmo",
        "do"
      ],
      [
        "Ġbo",
        "l"
      ],
      [
        "c",
        "ro"
      ],
      [
        "po",
        "ni"
      ],
      [
        "Ġtrans",
        "pa"
      ],
      [
        "8",
        "00"
      ],
      [
        "Ġv",
        "a"
      ],
      [
        "Ġma",
        "nt"
      ],
      [
        "us",
        "t"
      ],
      [
        "Ġme",
        "diante"
      ],
      [
        "66",
        "6"
      ],
      [
        "Ġprocess",
        "amento"
      ],
      [
        "l",
        "as"
      ],
      [
        "l",
        "ei"
      ],
      [
        "us",
        "a"
      ],
      [
        "inh",
        "entos"
      ],
      [
        "c",
        "el"
      ],
      [
        "u",
        "ra"
      ],
      [
        "Ġpa",
        "rÃ¡"
      ],
      [
        "Ġ9",
        "0"
      ],
      [
        "Ġci",
        "vil"
      ],
      [
        "5",
        "4"
      ],
      [
        "Ġ",
        "001"
      ],
      [
        "Ġp",
        "rÃ³"
      ],
      [
        "02",
        "4"
      ],
      [
        "bo",
        "ra"
      ],
      [
        "Ġinstru",
        "mento"
      ],
      [
        "Ġf",
        "ins"
      ],
      [
        "Ġse",
        "le"
      ],
      [
        "Ġj",
        "uni"
      ],
      [
        "es",
        "ta"
      ],
      [
        "Ġvis",
        "ta"
      ],
      [
        "Ġsegui",
        "nte"
      ],
      [
        "Ġescola",
        "r"
      ],
      [
        "Ġdis",
        "poni"
      ],
      [
        "Ġpra",
        "Ã§a"
      ],
      [
        "6",
        "1"
      ],
      [
        "7",
        "1"
      ],
      [
        "re",
        "ga"
      ],
      [
        "Ġu",
        "ti"
      ],
      [
        "Ġ",
        "2023"
      ],
      [
        "re",
        "en"
      ],
      [
        "li",
        "o"
      ],
      [
        "li",
        "na"
      ],
      [
        "in",
        "ha"
      ],
      [
        "Ġ4",
        "4"
      ],
      [
        "du",
        "al"
      ],
      [
        "Ġcomer",
        "cial"
      ],
      [
        "Ġc",
        "ruz"
      ],
      [
        "Ġconfor",
        "midade"
      ],
      [
        "Ġp",
        "al"
      ],
      [
        "Ġli",
        "mp"
      ],
      [
        "Ġ12",
        "3"
      ],
      [
        "Ġlegisla",
        "Ã§Ã£o"
      ],
      [
        "Ġdo",
        "u"
      ],
      [
        "or",
        "ro"
      ],
      [
        "Ġpre",
        "vis"
      ],
      [
        "Ġ3",
        "9"
      ],
      [
        "ĠÃ¡",
        "rea"
      ],
      [
        "Ġpena",
        "lidade"
      ],
      [
        "p",
        "on"
      ],
      [
        "Ġf",
        "il"
      ],
      [
        "Ġcamp",
        "us"
      ],
      [
        "Ġ",
        "ri"
      ],
      [
        "Ġespe",
        "cial"
      ],
      [
        "Ġam",
        "bi"
      ],
      [
        "c",
        "t"
      ],
      [
        "Ġp",
        "ncp"
      ],
      [
        "Ġgo",
        "n"
      ],
      [
        "Ġcon",
        "v"
      ],
      [
        "Ġab",
        "ril"
      ],
      [
        "ĠÃ³r",
        "gÃ£o"
      ],
      [
        "a",
        "d"
      ],
      [
        "Ġb",
        "ran"
      ],
      [
        "on",
        "a"
      ],
      [
        "Ġ4",
        "5"
      ],
      [
        "ca",
        "l"
      ],
      [
        "Ġencontra",
        "m"
      ],
      [
        "Ġnove",
        "centos"
      ],
      [
        "Ġk",
        "m"
      ],
      [
        "cent",
        "o"
      ],
      [
        "is",
        "si"
      ],
      [
        "Ġrecu",
        "rso"
      ],
      [
        "Ġjuni",
        "or"
      ],
      [
        "d",
        "re"
      ],
      [
        "r",
        "is"
      ],
      [
        "va",
        "Ã§Ã£o"
      ],
      [
        "Ġ15",
        "5"
      ],
      [
        "gi",
        "tal"
      ],
      [
        "Ġm",
        "u"
      ],
      [
        "cia",
        "is"
      ],
      [
        "Ġgo",
        "mes"
      ],
      [
        "Ġdever",
        "Ã£o"
      ],
      [
        "Ġgoi",
        "Ã¡s"
      ],
      [
        "9",
        "000"
      ],
      [
        "i",
        "re"
      ],
      [
        "Ġre",
        "sp"
      ],
      [
        "Ġan",
        "dar"
      ],
      [
        "Ġca",
        "das"
      ],
      [
        "nto",
        "nio"
      ],
      [
        "Ġregi",
        "me"
      ],
      [
        "Ġru",
        "ral"
      ],
      [
        "transpa",
        "rencia"
      ],
      [
        "t",
        "ce"
      ],
      [
        "reci",
        "mentos"
      ],
      [
        "Ġreso",
        "l"
      ],
      [
        "Ġexpedi",
        "ente"
      ],
      [
        "Ġ",
        "2021"
      ],
      [
        "Ġag",
        "ri"
      ],
      [
        "Ġlimp",
        "eza"
      ],
      [
        "7",
        "9"
      ],
      [
        "f",
        "er"
      ],
      [
        "Ġ",
        "z"
      ],
      [
        "Ġdi",
        "Ã¡rio"
      ],
      [
        "Ġconside",
        "rando"
      ],
      [
        "m",
        "f"
      ],
      [
        "t",
        "ins"
      ],
      [
        "Ġins",
        "u"
      ],
      [
        "Ġdistribui",
        "dora"
      ],
      [
        "Ġi",
        "ni"
      ],
      [
        "Ġrib",
        "eiro"
      ],
      [
        "Ġi",
        "m"
      ],
      [
        "Ġavis",
        "os"
      ],
      [
        "i",
        "to"
      ],
      [
        "vi",
        "o"
      ],
      [
        "pe",
        "c"
      ],
      [
        "Ġpor",
        "to"
      ],
      [
        "Ġte",
        "mp"
      ],
      [
        "ti",
        "vi"
      ],
      [
        "Ġbol",
        "sa"
      ],
      [
        "7",
        "0"
      ],
      [
        "a",
        "c"
      ],
      [
        "Ġa",
        "de"
      ],
      [
        "Ġa",
        "cesso"
      ],
      [
        "in",
        "da"
      ],
      [
        "Ã©",
        "tri"
      ],
      [
        "Ġ15",
        "8"
      ],
      [
        "Ġpos",
        "ter"
      ],
      [
        "b",
        "b"
      ],
      [
        "u",
        "f"
      ],
      [
        "Ã",
        "´"
      ],
      [
        "Ġor",
        "ig"
      ],
      [
        "Ġpe",
        "Ã§as"
      ],
      [
        "6",
        "4"
      ],
      [
        "e",
        "di"
      ],
      [
        "Ġob",
        "s"
      ],
      [
        "licita",
        "cao"
      ],
      [
        "Ġ2",
        "30"
      ],
      [
        "Ġlei",
        "l"
      ],
      [
        "Ġescla",
        "recimentos"
      ],
      [
        "ga",
        "o"
      ],
      [
        "lh",
        "i"
      ],
      [
        "Ġout",
        "ros"
      ],
      [
        "mÃ©",
        "dio"
      ],
      [
        "Ġo",
        "do"
      ],
      [
        "qu",
        "er"
      ],
      [
        "Ġ3",
        "8"
      ],
      [
        "Ġtranspa",
        "rÃªncia"
      ],
      [
        "Ġresol",
        "ve"
      ],
      [
        "t",
        "Ã©"
      ],
      [
        "ti",
        "vas"
      ],
      [
        "liza",
        "dos"
      ],
      [
        "Ġc",
        "he"
      ],
      [
        "Ġ7",
        "5"
      ],
      [
        "Ġla",
        "bora"
      ],
      [
        "Ġcont",
        "i"
      ],
      [
        "Ġinter",
        "mÃ©dio"
      ],
      [
        "Ġsanta",
        "na"
      ],
      [
        "Ġcorre",
        "tiva"
      ],
      [
        "d",
        "Ãªncia"
      ],
      [
        "Ġdi",
        "v"
      ],
      [
        "99",
        "99"
      ],
      [
        "Ġs",
        "p"
      ],
      [
        "Ġj",
        "ar"
      ],
      [
        "6",
        "2"
      ],
      [
        "p",
        "etro"
      ],
      [
        "Ġf",
        "ar"
      ],
      [
        "ÃŃ",
        "ni"
      ],
      [
        "Ġcent",
        "o"
      ],
      [
        "Ġodo",
        "nto"
      ],
      [
        "h",
        "or"
      ],
      [
        "Ġpre",
        "vent"
      ],
      [
        "Ġvi",
        "r"
      ],
      [
        "/",
        ","
      ],
      [
        "n",
        "Ã¡"
      ],
      [
        "on",
        "ta"
      ],
      [
        "6",
        "9"
      ],
      [
        "Ġ",
        "x"
      ],
      [
        "Ġre",
        "vo"
      ],
      [
        "di",
        "m"
      ],
      [
        "Ã©",
        "rcio"
      ],
      [
        "Ġfo",
        "ram"
      ],
      [
        "Ã¡",
        "vel"
      ],
      [
        "fica",
        "do"
      ],
      [
        "cul",
        "tura"
      ],
      [
        "Ġuniversi",
        "dade"
      ],
      [
        "edi",
        "tais"
      ],
      [
        "\"",
        "."
      ],
      [
        "Ġin",
        "cl"
      ],
      [
        "Ġel",
        "Ã©tri"
      ],
      [
        "Ġequi",
        "pe"
      ],
      [
        "Ġe",
        "ire"
      ],
      [
        "Ġlo",
        "caÃ§Ã£o"
      ],
      [
        "g",
        "os"
      ],
      [
        "Ġn",
        "Ãº"
      ],
      [
        "ÃŃ",
        "si"
      ],
      [
        "ix",
        "o"
      ],
      [
        "Ġposter",
        "iores"
      ],
      [
        "Ġa",
        "inda"
      ],
      [
        "Ġv",
        "in"
      ],
      [
        "Ġinstitu",
        "to"
      ],
      [
        "ĠorÃ§a",
        "ment"
      ],
      [
        "Ġminist",
        "Ã©rio"
      ],
      [
        "Ġob",
        "ser"
      ],
      [
        "Ġg",
        "ua"
      ],
      [
        "Ġ4",
        "6"
      ],
      [
        "Ġinsu",
        "mos"
      ],
      [
        "x",
        "o"
      ],
      [
        "Ġd",
        "f"
      ],
      [
        "Ġc",
        "la"
      ],
      [
        "Ġf",
        "ÃŃsi"
      ],
      [
        "cion",
        "ado"
      ],
      [
        "Ã¢n",
        "dia"
      ],
      [
        "Ġprevent",
        "iva"
      ],
      [
        "e",
        "te"
      ],
      [
        "en",
        "s"
      ],
      [
        "Ġes",
        "tra"
      ],
      [
        "Ġte",
        "l"
      ],
      [
        "Ġo",
        "corre"
      ],
      [
        "ca",
        "nt"
      ],
      [
        "tu",
        "ras"
      ],
      [
        "Ã¡",
        "l"
      ],
      [
        "ĠeletrÃ´nico",
        "s"
      ],
      [
        "Ġso",
        "usa"
      ],
      [
        "Ġ7",
        "1"
      ],
      [
        "Ġuni",
        "tÃ¡rio"
      ],
      [
        "lu",
        "Ã§Ã£o"
      ],
      [
        "Ġpri",
        "m"
      ],
      [
        "z",
        "er"
      ],
      [
        "Ġf",
        "ro"
      ],
      [
        "Ġ6",
        "4"
      ],
      [
        "Ġta",
        "mb"
      ],
      [
        "u",
        "indo"
      ],
      [
        "Ġs",
        "endo"
      ],
      [
        "ci",
        "sÃ£o"
      ],
      [
        "as",
        "si"
      ],
      [
        "ei",
        "ras"
      ],
      [
        "Ġpr",
        "orro"
      ],
      [
        "Ġeire",
        "li"
      ],
      [
        "e",
        "ro"
      ],
      [
        "ĠtÃ©cni",
        "ca"
      ],
      [
        "Ġgra",
        "tu"
      ],
      [
        "Ġca",
        "ixa"
      ],
      [
        "Ġan",
        "Ã¡"
      ],
      [
        "Ġcont",
        "in"
      ],
      [
        "Ġtecno",
        "logia"
      ],
      [
        "7",
        "4"
      ],
      [
        "qu",
        "in"
      ],
      [
        "to",
        "n"
      ],
      [
        "Ġcom",
        "Ã©rcio"
      ],
      [
        "Ġsa",
        "nto"
      ],
      [
        "ran",
        "Ã§a"
      ],
      [
        "Ġpe",
        "dro"
      ],
      [
        "Ġro",
        "do"
      ],
      [
        "lhi",
        "mento"
      ],
      [
        "Ġche",
        "fe"
      ],
      [
        "h",
        "os"
      ],
      [
        "Ã©",
        "ri"
      ],
      [
        "Ġmar",
        "tins"
      ],
      [
        "Ġcamp",
        "o"
      ],
      [
        "ĠÃ¡",
        "gua"
      ],
      [
        "v",
        "or"
      ],
      [
        "Ġa",
        "tivi"
      ],
      [
        "Ġconv",
        "Ãªnio"
      ],
      [
        "5",
        "2"
      ],
      [
        "b",
        "ras"
      ],
      [
        "Ġa",
        "ntonio"
      ],
      [
        "es",
        "t"
      ],
      [
        "ei",
        "ros"
      ],
      [
        "Ġfor",
        "tal"
      ],
      [
        "Ġinter",
        "net"
      ],
      [
        "Ġoito",
        "centos"
      ],
      [
        "Ġeletro",
        "nico"
      ],
      [
        "u",
        "mo"
      ],
      [
        "Ġba",
        "hia"
      ],
      [
        "Ġesp",
        "Ã©"
      ],
      [
        "Ġsele",
        "Ã§Ã£o"
      ],
      [
        "i",
        "os"
      ],
      [
        "li",
        "z"
      ],
      [
        "Ġes",
        "tÃ£o"
      ],
      [
        "Ġdi",
        "rei"
      ],
      [
        "Ġhomolo",
        "go"
      ],
      [
        "gi",
        "bilidade"
      ],
      [
        "Ġsup",
        "ri"
      ],
      [
        "ĠpÃ¡g",
        "ina"
      ],
      [
        "7",
        "3"
      ],
      [
        "9",
        "001"
      ],
      [
        "ta",
        "dos"
      ],
      [
        "tu",
        "al"
      ],
      [
        "Ġg",
        "ru"
      ],
      [
        "Ġinteres",
        "se"
      ],
      [
        "Ġfern",
        "an"
      ],
      [
        "b",
        "osa"
      ],
      [
        "xi",
        "gibilidade"
      ],
      [
        "ĠjurÃŃ",
        "di"
      ],
      [
        "Ġdu",
        "zentos"
      ],
      [
        "Ġale",
        "x"
      ],
      [
        "Ġtamb",
        "Ã©m"
      ],
      [
        "u",
        "p"
      ],
      [
        "Ġex",
        "a"
      ],
      [
        "Ġcar",
        "val"
      ],
      [
        "ĠtÃ©cni",
        "co"
      ],
      [
        "ne",
        "ct"
      ],
      [
        "un",
        "do"
      ],
      [
        "Ġfa",
        "vor"
      ],
      [
        "ĠespÃ©",
        "cie"
      ],
      [
        "li",
        "ar"
      ],
      [
        "Ġap",
        "Ã³s"
      ],
      [
        "Ġquatro",
        "centos"
      ],
      [
        "Ġhabili",
        "taÃ§Ã£o"
      ],
      [
        "6",
        "8"
      ],
      [
        "b",
        "ra"
      ],
      [
        "Ġto",
        "das"
      ],
      [
        "Ġine",
        "xigibilidade"
      ],
      [
        "petro",
        "nect"
      ],
      [
        "i",
        "as"
      ],
      [
        "Ġpel",
        "os"
      ],
      [
        "Ġpublica",
        "do"
      ],
      [
        "Ġtrabal",
        "ho"
      ],
      [
        "Ġfil",
        "ho"
      ],
      [
        "Ġp",
        "ia"
      ],
      [
        "Ġs",
        "ei"
      ],
      [
        "ti",
        "cos"
      ],
      [
        "Ġi",
        "v"
      ],
      [
        "li",
        "se"
      ],
      [
        "Ġf",
        "l"
      ],
      [
        "Ġau",
        "to"
      ],
      [
        "ĠbÃ¡si",
        "ca"
      ],
      [
        "Ġcarval",
        "ho"
      ],
      [
        "s",
        "rp"
      ],
      [
        "Ġf",
        "is"
      ],
      [
        "to",
        "res"
      ],
      [
        "sa",
        "o"
      ],
      [
        "Ġincl",
        "uindo"
      ],
      [
        "j",
        "amento"
      ],
      [
        "Ġel",
        "e"
      ],
      [
        "Ġb",
        "lo"
      ],
      [
        "Ġob",
        "tenÃ§Ã£o"
      ],
      [
        "Ġf",
        "ase"
      ],
      [
        "Ġ4",
        "0"
      ],
      [
        "Ġ5",
        "5"
      ],
      [
        "Ġme",
        "c"
      ],
      [
        "Ġsuperinten",
        "dente"
      ],
      [
        "Ġso",
        "ares"
      ],
      [
        "Ġagri",
        "cultura"
      ],
      [
        "ci",
        "na"
      ],
      [
        "Ġpa",
        "re"
      ],
      [
        "Ġ0",
        "02"
      ],
      [
        "Ġqu",
        "inhentos"
      ],
      [
        "menta",
        "is"
      ],
      [
        "Ġsuperi",
        "or"
      ],
      [
        "h",
        "ttp"
      ],
      [
        "u",
        "de"
      ],
      [
        "Ġplan",
        "e"
      ],
      [
        "Ġconvo",
        "ca"
      ],
      [
        "Ġaba",
        "ixo"
      ],
      [
        "mei",
        "da"
      ],
      [
        "7",
        "2"
      ],
      [
        "Ġca",
        "n"
      ],
      [
        "Ġan",
        "dra"
      ],
      [
        "Ġcamp",
        "os"
      ],
      [
        "Ġfin",
        "al"
      ],
      [
        "Ġim",
        "Ã³"
      ],
      [
        "do",
        "is"
      ],
      [
        "Ġadministra",
        "tiva"
      ],
      [
        "lia",
        "Ã§Ã£o"
      ],
      [
        "Ġf",
        "rei"
      ],
      [
        "Ġb",
        "ll"
      ],
      [
        "vi",
        "nte"
      ],
      [
        "Ġbar",
        "bosa"
      ],
      [
        "h",
        "Ãµes"
      ],
      [
        "in",
        "ho"
      ],
      [
        "Ġv",
        "er"
      ],
      [
        "Ġma",
        "g"
      ],
      [
        "Ġho",
        "ra"
      ],
      [
        "Ġdivers",
        "os"
      ],
      [
        "Ġt",
        "rib"
      ],
      [
        "me",
        "d"
      ],
      [
        "Ġmin",
        "as"
      ],
      [
        "Ġconti",
        "das"
      ],
      [
        "Ġde",
        "vi"
      ],
      [
        "le",
        "o"
      ],
      [
        "Ġlei",
        "a"
      ],
      [
        "em",
        "bro"
      ],
      [
        "Ġnor",
        "mas"
      ],
      [
        "Ġpia",
        "uÃŃ"
      ],
      [
        "Ġse",
        "rem"
      ],
      [
        "ua",
        "is"
      ],
      [
        "Ġag",
        "os"
      ],
      [
        "2",
        "00"
      ],
      [
        "Ġp",
        "m"
      ],
      [
        "di",
        "mentos"
      ],
      [
        "Ġal",
        "meida"
      ],
      [
        "Ġrealiza",
        "do"
      ],
      [
        "5",
        "00"
      ],
      [
        "Ġv",
        "ila"
      ],
      [
        "Ġale",
        "gre"
      ],
      [
        "Ġjar",
        "dim"
      ],
      [
        "ra",
        "nte"
      ],
      [
        "Ġg",
        "u"
      ],
      [
        "Ġfortal",
        "eza"
      ],
      [
        "Ġs",
        "an"
      ],
      [
        "Ġlo",
        "tes"
      ],
      [
        "Ġuniversi",
        "tÃ¡rio"
      ],
      [
        "Ġgover",
        "no"
      ],
      [
        "b",
        "u"
      ],
      [
        "Ġar",
        "ma"
      ],
      [
        "Ġcont",
        "ro"
      ],
      [
        "Ġdire",
        "ta"
      ],
      [
        "Ġrela",
        "Ã§Ã£o"
      ],
      [
        "Ġsitu",
        "ada"
      ],
      [
        "Ġaco",
        "lhimento"
      ],
      [
        "p",
        "u"
      ],
      [
        "ra",
        "das"
      ],
      [
        "Ġa",
        "to"
      ],
      [
        "es",
        "us"
      ],
      [
        "5",
        "3"
      ],
      [
        "Ġl",
        "Ãª"
      ],
      [
        "Ġel",
        "a"
      ],
      [
        "s",
        "al"
      ],
      [
        "Ã§",
        "u"
      ],
      [
        "Ġpro",
        "c"
      ],
      [
        "Ġres",
        "pec"
      ],
      [
        "Ġvin",
        "cul"
      ],
      [
        "ni",
        "zaÃ§Ã£o"
      ],
      [
        "ri",
        "ti"
      ],
      [
        "qu",
        "es"
      ],
      [
        "Ġu",
        "ma"
      ],
      [
        "Ġsob",
        "re"
      ],
      [
        "Ġsegu",
        "ranÃ§a"
      ],
      [
        "Ġii",
        "i"
      ],
      [
        "m",
        "al"
      ],
      [
        "Ġ",
        "Â"
      ],
      [
        "Ġ4",
        "9"
      ],
      [
        "un",
        "es"
      ],
      [
        "Ġqua",
        "dra"
      ],
      [
        "Ġresp",
        "on"
      ],
      [
        "f",
        "o"
      ],
      [
        "Ġm",
        "Ã³"
      ],
      [
        "Ġb",
        "u"
      ],
      [
        "Ġca",
        "l"
      ],
      [
        "Ġtemp",
        "o"
      ],
      [
        "Ġgratu",
        "ita"
      ],
      [
        "Ġplane",
        "jamento"
      ],
      [
        "Ġesta",
        "dual"
      ],
      [
        "Ġpo",
        "l"
      ],
      [
        "Ġper",
        "tin"
      ],
      [
        "a",
        "o"
      ],
      [
        "ei",
        "to"
      ],
      [
        "Ġsal",
        "va"
      ],
      [
        "Ġtre",
        "zentos"
      ],
      [
        "7",
        "8"
      ],
      [
        "Ġre",
        "i"
      ],
      [
        "Ġas",
        "f"
      ],
      [
        "Ġcons",
        "umo"
      ],
      [
        "xi",
        "mo"
      ],
      [
        "9",
        "1"
      ],
      [
        "ta",
        "do"
      ],
      [
        "me",
        "ro"
      ],
      [
        "ĠorÃ§ament",
        "Ã¡ria"
      ],
      [
        "Ġcl",
        "assi"
      ],
      [
        "Ġp",
        "es"
      ],
      [
        "Ġa",
        "no"
      ],
      [
        "Ã£",
        "es"
      ],
      [
        "Ġin",
        "di"
[...]
